{
  "version": "1.0",
  "truncation": null,
  "padding": null,
  "added_tokens": [
    {
      "id": 0,
      "content": "<s>",
      "single_word": false,
      "lstrip": false,
      "rstrip": false,
      "normalized": false,
      "special": true
    },
    {
      "id": 1,
      "content": "<pad>",
      "single_word": false,
      "lstrip": false,
      "rstrip": false,
      "normalized": false,
      "special": true
    },
    {
      "id": 2,
      "content": "</s>",
      "single_word": false,
      "lstrip": false,
      "rstrip": false,
      "normalized": false,
      "special": true
    },
    {
      "id": 3,
      "content": "<unk>",
      "single_word": false,
      "lstrip": false,
      "rstrip": false,
      "normalized": false,
      "special": true
    },
    {
      "id": 4,
      "content": "<mask>",
      "single_word": false,
      "lstrip": true,
      "rstrip": false,
      "normalized": false,
      "special": true
    }
  ],
  "normalizer": null,
  "pre_tokenizer": {
    "type": "ByteLevel",
    "add_prefix_space": false,
    "trim_offsets": true,
    "use_regex": true
  },
  "post_processor": {
    "type": "RobertaProcessing",
    "sep": [
      "</s>",
      2
    ],
    "cls": [
      "<s>",
      0
    ],
    "trim_offsets": true,
    "add_prefix_space": false
  },
  "decoder": {
    "type": "ByteLevel",
    "add_prefix_space": true,
    "trim_offsets": true,
    "use_regex": true
  },
  "model": {
    "type": "BPE",
    "dropout": null,
    "unk_token": null,
    "continuing_subword_prefix": "",
    "end_of_word_suffix": "",
    "fuse_unk": false,
    "byte_fallback": false,
    "vocab": {
      "<s>": 0,
      "<pad>": 1,
      "</s>": 2,
      "<unk>": 3,
      "<mask>": 4,
      "!": 5,
      "\"": 6,
      "#": 7,
      "$": 8,
      "%": 9,
      "&": 10,
      "'": 11,
      "(": 12,
      ")": 13,
      "*": 14,
      "+": 15,
      ",": 16,
      "-": 17,
      ".": 18,
      "/": 19,
      "0": 20,
      "1": 21,
      "2": 22,
      "3": 23,
      "4": 24,
      "5": 25,
      "6": 26,
      "7": 27,
      "8": 28,
      "9": 29,
      ":": 30,
      ";": 31,
      "<": 32,
      "=": 33,
      ">": 34,
      "?": 35,
      "@": 36,
      "A": 37,
      "B": 38,
      "C": 39,
      "D": 40,
      "E": 41,
      "F": 42,
      "G": 43,
      "H": 44,
      "I": 45,
      "J": 46,
      "K": 47,
      "L": 48,
      "M": 49,
      "N": 50,
      "O": 51,
      "P": 52,
      "Q": 53,
      "R": 54,
      "S": 55,
      "T": 56,
      "U": 57,
      "V": 58,
      "W": 59,
      "X": 60,
      "Y": 61,
      "Z": 62,
      "[": 63,
      "\\": 64,
      "]": 65,
      "^": 66,
      "_": 67,
      "`": 68,
      "a": 69,
      "b": 70,
      "c": 71,
      "d": 72,
      "e": 73,
      "f": 74,
      "g": 75,
      "h": 76,
      "i": 77,
      "j": 78,
      "k": 79,
      "l": 80,
      "m": 81,
      "n": 82,
      "o": 83,
      "p": 84,
      "q": 85,
      "r": 86,
      "s": 87,
      "t": 88,
      "u": 89,
      "v": 90,
      "w": 91,
      "x": 92,
      "y": 93,
      "z": 94,
      "{": 95,
      "|": 96,
      "}": 97,
      "~": 98,
      "¡": 99,
      "¢": 100,
      "£": 101,
      "¤": 102,
      "¥": 103,
      "¦": 104,
      "§": 105,
      "¨": 106,
      "©": 107,
      "ª": 108,
      "«": 109,
      "¬": 110,
      "®": 111,
      "¯": 112,
      "°": 113,
      "±": 114,
      "²": 115,
      "³": 116,
      "´": 117,
      "µ": 118,
      "¶": 119,
      "·": 120,
      "¸": 121,
      "¹": 122,
      "º": 123,
      "»": 124,
      "¼": 125,
      "½": 126,
      "¾": 127,
      "¿": 128,
      "À": 129,
      "Á": 130,
      "Â": 131,
      "Ã": 132,
      "Ä": 133,
      "Å": 134,
      "Æ": 135,
      "Ç": 136,
      "È": 137,
      "É": 138,
      "Ê": 139,
      "Ë": 140,
      "Ì": 141,
      "Í": 142,
      "Î": 143,
      "Ï": 144,
      "Ð": 145,
      "Ñ": 146,
      "Ò": 147,
      "Ó": 148,
      "Ô": 149,
      "Õ": 150,
      "Ö": 151,
      "×": 152,
      "Ø": 153,
      "Ù": 154,
      "Ú": 155,
      "Û": 156,
      "Ü": 157,
      "Ý": 158,
      "Þ": 159,
      "ß": 160,
      "à": 161,
      "á": 162,
      "â": 163,
      "ã": 164,
      "ä": 165,
      "å": 166,
      "æ": 167,
      "ç": 168,
      "è": 169,
      "é": 170,
      "ê": 171,
      "ë": 172,
      "ì": 173,
      "í": 174,
      "î": 175,
      "ï": 176,
      "ð": 177,
      "ñ": 178,
      "ò": 179,
      "ó": 180,
      "ô": 181,
      "õ": 182,
      "ö": 183,
      "÷": 184,
      "ø": 185,
      "ù": 186,
      "ú": 187,
      "û": 188,
      "ü": 189,
      "ý": 190,
      "þ": 191,
      "ÿ": 192,
      "Ā": 193,
      "ā": 194,
      "Ă": 195,
      "ă": 196,
      "Ą": 197,
      "ą": 198,
      "Ć": 199,
      "ć": 200,
      "Ĉ": 201,
      "ĉ": 202,
      "Ċ": 203,
      "ċ": 204,
      "Č": 205,
      "č": 206,
      "Ď": 207,
      "ď": 208,
      "Đ": 209,
      "đ": 210,
      "Ē": 211,
      "ē": 212,
      "Ĕ": 213,
      "ĕ": 214,
      "Ė": 215,
      "ė": 216,
      "Ę": 217,
      "ę": 218,
      "Ě": 219,
      "ě": 220,
      "Ĝ": 221,
      "ĝ": 222,
      "Ğ": 223,
      "ğ": 224,
      "Ġ": 225,
      "ġ": 226,
      "Ģ": 227,
      "ģ": 228,
      "Ĥ": 229,
      "ĥ": 230,
      "Ħ": 231,
      "ħ": 232,
      "Ĩ": 233,
      "ĩ": 234,
      "Ī": 235,
      "ī": 236,
      "Ĭ": 237,
      "ĭ": 238,
      "Į": 239,
      "į": 240,
      "İ": 241,
      "ı": 242,
      "Ĳ": 243,
      "ĳ": 244,
      "Ĵ": 245,
      "ĵ": 246,
      "Ķ": 247,
      "ķ": 248,
      "ĸ": 249,
      "Ĺ": 250,
      "ĺ": 251,
      "Ļ": 252,
      "ļ": 253,
      "Ľ": 254,
      "ľ": 255,
      "Ŀ": 256,
      "ŀ": 257,
      "Ł": 258,
      "ł": 259,
      "Ń": 260,
      "ĠĠ": 261,
      "ĠĠĠĠ": 262,
      "ĠĠĠĠĠĠĠĠ": 263,
      "ĠĠĠ": 264,
      "in": 265,
      "er": 266,
      "on": 267,
      "re": 268,
      "at": 269,
      "st": 270,
      "en": 271,
      "Ġt": 272,
      "or": 273,
      "ĉĉ": 274,
      "le": 275,
      "ĊĠĠĠĠ": 276,
      "se": 277,
      "Ġ=": 278,
      "an": 279,
      "ĊĠĠĠĠĠĠĠĠ": 280,
      "al": 281,
      "de": 282,
      "Ġc": 283,
      "ar": 284,
      ");": 285,
      "ion": 286,
      "ĊĠĠĠ": 287,
      "--": 288,
      "it": 289,
      "Ġ*": 290,
      "ct": 291,
      "he": 292,
      "ss": 293,
      "me": 294,
      "ĊĠĠĠĠĠĠĠ": 295,
      "**": 296,
      "Ġ{": 297,
      "ge": 298,
      "ro": 299,
      "</": 300,
      "Ġ(": 301,
      "is": 302,
      "ic": 303,
      "Ġf": 304,
      "ur": 305,
      "la": 306,
      "=\"": 307,
      "Ġp": 308,
      "//": 309,
      "ing": 310,
      "if": 311,
      "Ċĉĉ": 312,
      "ent": 313,
      "ce": 314,
      "un": 315,
      "Ċĉ": 316,
      "ut": 317,
      "Ġ<": 318,
      "ĊĠ": 319,
      "id": 320,
      "Ġn": 321,
      "Ġs": 322,
      "Ġa": 323,
      "lo": 324,
      "Ġ0": 325,
      "ed": 326,
      "Ġre": 327,
      "Ġb": 328,
      "Ġthe": 329,
      "->": 330,
      "Ġ\"": 331,
      "Ġ}": 332,
      "tr": 333,
      "co": 334,
      "pe": 335,
      "mp": 336,
      "00": 337,
      "Ġin": 338,
      "ex": 339,
      "ad": 340,
      "ame": 341,
      "ue": 342,
      "ĊĠĠĠĠĠĠĠĠĠĠĠ": 343,
      "----": 344,
      "ate": 345,
      "==": 346,
      "Ġo": 347,
      "li": 348,
      "\">": 349,
      "ul": 350,
      "th": 351,
      "ck": 352,
      "ig": 353,
      "il": 354,
      "el": 355,
      "Ġm": 356,
      "()": 357,
      "Ġv": 358,
      "iv": 359,
      "lass": 360,
      "str": 361,
      "Ġw": 362,
      "Ġ'": 363,
      "Ġd": 364,
      "urn": 365,
      "ĠĠĠĠĠĠĠĠĠĠĠĠĠĠĠĠ": 366,
      "ation": 367,
      "turn": 368,
      "ĠĠĠĠĠĠĠ": 369,
      "ch": 370,
      "****": 371,
      "get": 372,
      "sp": 373,
      "pt": 374,
      "ot": 375,
      "ht": 376,
      "ol": 377,
      "ĠS": 378,
      "age": 379,
      "et": 380,
      "ction": 381,
      "ype": 382,
      "ab": 383,
      "int": 384,
      "ub": 385,
      "Ġth": 386,
      "ont": 387,
      "es": 388,
      "ap": 389,
      "and": 390,
      "um": 391,
      "Ġif": 392,
      "Ġ$": 393,
      "Ġclass": 394,
      "ĊĠĠĠĠĠ": 395,
      "us": 396,
      "Ġ1": 397,
      "ĠC": 398,
      "Ġh": 399,
      "set": 400,
      "Ġto": 401,
      "ext": 402,
      "In": 403,
      "ĠT": 404,
      "as": 405,
      "def": 406,
      "ine": 407,
      "ort": 408,
      "ew": 409,
      "am": 410,
      "ode": 411,
      "\",": 412,
      "Re": 413,
      "ĠA": 414,
      "Ġ*/": 415,
      "ĊĠĠĠĠĠĠĠĠĠĠĠĠĠĠĠ": 416,
      "ata": 417,
      "end": 418,
      "..": 419,
      "ĊĊ": 420,
      "ile": 421,
      "up": 422,
      "Ġ//": 423,
      "ter": 424,
      "lic": 425,
      "::": 426,
      "ect": 427,
      "iz": 428,
      "ĊĠĠĠĠĠĠĠĠĠĠĠĠĠĠĠĠ": 429,
      "to": 430,
      "em": 431,
      "ra": 432,
      "--------": 433,
      "ri": 434,
      "able": 435,
      "od": 436,
      "Ġreturn": 437,
      "Ġof": 438,
      "',": 439,
      "IN": 440,
      "Ġ-": 441,
      "alue": 442,
      "av": 443,
      "Ġ&": 444,
      "====": 445,
      "ver": 446,
      "Ċĉĉĉĉ": 447,
      "Ġst": 448,
      "ĠP": 449,
      "ase": 450,
      "(\"": 451,
      "ff": 452,
      "Ġis": 453,
      "ER": 454,
      "Ġfor": 455,
      "our": 456,
      "qu": 457,
      "ption": 458,
      "Ġ@": 459,
      "ĊĊĠĠĠ": 460,
      "ow": 461,
      "ult": 462,
      "/*": 463,
      "Ġ+": 464,
      "ack": 465,
      "con": 466,
      "();": 467,
      "om": 468,
      "Ġi": 469,
      "********": 470,
      "ref": 471,
      "Ġthis": 472,
      "ist": 473,
      "all": 474,
      "../": 475,
      "ment": 476,
      "Ġl": 477,
      "))": 478,
      "Ġe": 479,
      "op": 480,
      "Ċĉĉĉ": 481,
      "te": 482,
      "ize": 483,
      "ĠN": 484,
      "der": 485,
      "ert": 486,
      "ON": 487,
      "ĠL": 488,
      "ir": 489,
      "unction": 490,
      "Ġ2": 491,
      "ource": 492,
      "fo": 493,
      "Ġcon": 494,
      "RE": 495,
      "div": 496,
      "čĊ": 497,
      "__": 498,
      "ml": 499,
      "td": 500,
      "Ġ</": 501,
      "Ġse": 502,
      "ĠD": 503,
      "ĠF": 504,
      "ĠM": 505,
      "sc": 506,
      "name": 507,
      "ke": 508,
      "ject": 509,
      "ublic": 510,
      "uct": 511,
      "span": 512,
      "im": 513,
      "></": 514,
      "Ġg": 515,
      "ans": 516,
      "ers": 517,
      "),": 518,
      "ith": 519,
      "Ġ.": 520,
      "orm": 521,
      "ĊĠĠĠĠĠĠĠĠĠĠĠĠĠĠĠĠĠĠĠĠĠĠĠĠ": 522,
      "ac": 523,
      "par": 524,
      "return": 525,
      "oid": 526,
      "ĠI": 527,
      "><": 528,
      "##": 529,
      "ĠG": 530,
      "('": 531,
      "Ġand": 532,
      "Ġ[": 533,
      "ssage": 534,
      "ight": 535,
      "lf": 536,
      "ib": 537,
      "this": 538,
      "struct": 539,
      "Ġde": 540,
      "err": 541,
      "tring": 542,
      "Ex": 543,
      "OR": 544,
      "lu": 545,
      "Ġr": 546,
      "Ġ:": 547,
      "ime": 548,
      "nt": 549,
      "html": 550,
      "St": 551,
      "ST": 552,
      "os": 553,
      "Ġor": 554,
      "art": 555,
      "put": 556,
      "res": 557,
      "EN": 558,
      "oc": 559,
      "Ġ==": 560,
      "pro": 561,
      "Ġbe": 562,
      "dd": 563,
      "ĠB": 564,
      "ull": 565,
      "ign": 566,
      "Ġ=>": 567,
      "ain": 568,
      "are": 569,
      "Ġtr": 570,
      "ĊĠĠĠĠĠĠĠĠĠĠĠĠĠĠĠĠĠĠĠ": 571,
      "Ġhref": 572,
      "imp": 573,
      "use": 574,
      "Ġnew": 575,
      "lock": 576,
      "Ġint": 577,
      "Ġ!": 578,
      "out": 579,
      "bject": 580,
      "code": 581,
      "est": 582,
      "ag": 583,
      "Ġ|": 584,
      "type": 585,
      "Ġpro": 586,
      "ĠĠĠĠĠ": 587,
      "../../": 588,
      "atic": 589,
      "AT": 590,
      "ind": 591,
      "Ġ#": 592,
      "AR": 593,
      "add": 594,
      "loc": 595,
      "act": 596,
      "message": 597,
      "que": 598,
      "ath": 599,
      "tp": 600,
      "string": 601,
      "AL": 602,
      "oun": 603,
      "Ġex": 604,
      "Ġit": 605,
      "Type": 606,
      "arg": 607,
      "Ġfunction": 608,
      "Ġon": 609,
      "oo": 610,
      "ly": 611,
      "Ġ/": 612,
      "ĠO": 613,
      "0000": 614,
      "32": 615,
      "Name": 616,
      "rom": 617,
      "data": 618,
      "else": 619,
      "ray": 620,
      "dex": 621,
      "ice": 622,
      "vent": 623,
      "source": 624,
      "bu": 625,
      "IT": 626,
      "ser": 627,
      "ace": 628,
      "----------------": 629,
      "ĊĊĠĠĠĠĠĠĠ": 630,
      "UL": 631,
      "com": 632,
      "col": 633,
      "SE": 634,
      "ity": 635,
      "define": 636,
      ").": 637,
      "lay": 638,
      "ure": 639,
      "ial": 640,
      "ip": 641,
      "import": 642,
      "ĠW": 643,
      "ire": 644,
      "DE": 645,
      "Ġ>": 646,
      "form": 647,
      "ft": 648,
      "list": 649,
      "cont": 650,
      "row": 651,
      "Ġch": 652,
      "pr": 653,
      "01": 654,
      "ĊĊĠ": 655,
      "ĠE": 656,
      "ma": 657,
      "Ġun": 658,
      "alse": 659,
      "ĊĠĠ": 660,
      "ve": 661,
      "========": 662,
      "ite": 663,
      "fig": 664,
      "sh": 665,
      "Ġpublic": 666,
      "Ġname": 667,
      "ll": 668,
      "Ġ_": 669,
      "param": 670,
      "ĊĠĠĠĠĠĠĠĠĠ": 671,
      "Ġ)": 672,
      "key": 673,
      "ive": 674,
      "px": 675,
      "Pro": 676,
      "));": 677,
      "\");": 678,
      "ay": 679,
      "per": 680,
      "trans": 681,
      "Ġvoid": 682,
      "omp": 683,
      "one": 684,
      "ĠU": 685,
      "Ġtype": 686,
      "String": 687,
      "LE": 688,
      "ition": 689,
      "port": 690,
      "Ġnot": 691,
      "Ġan": 692,
      "dev": 693,
      "////": 694,
      "ense": 695,
      "iel": 696,
      "ance": 697,
      "lement": 698,
      "http": 699,
      "ĠH": 700,
      "clu": 701,
      "ield": 702,
      "De": 703,
      "ink": 704,
      "Ġvalue": 705,
      "Ġcont": 706,
      "AN": 707,
      "ost": 708,
      "Ġwith": 709,
      "Ġget": 710,
      "Ġy": 711,
      "****************": 712,
      "Con": 713,
      "ript": 714,
      "Ġj": 715,
      "Ġconst": 716,
      "bo": 717,
      "ID": 718,
      "ree": 719,
      "Ġself": 720,
      "($": 721,
      "ary": 722,
      "Ġelse": 723,
      "clude": 724,
      "mo": 725,
      "Id": 726,
      "Ġ/*": 727,
      "Ġdef": 728,
      "cess": 729,
      "ory": 730,
      "pp": 731,
      "Ġvar": 732,
      "ord": 733,
      "ress": 734,
      "Cont": 735,
      "quest": 736,
      "val": 737,
      "log": 738,
      "ibut": 739,
      "io": 740,
      "ĠR": 741,
      "Ġ&&": 742,
      "ĠV": 743,
      "ener": 744,
      "List": 745,
      "Ġ%": 746,
      "']": 747,
      "ault": 748,
      "SS": 749,
      "ber": 750,
      "Ġwh": 751,
      "ore": 752,
      "ator": 753,
      "\"><": 754,
      "ange": 755,
      "iew": 756,
      "CT": 757,
      "size": 758,
      "ph": 759,
      "ak": 760,
      "://": 761,
      "ant": 762,
      "lation": 763,
      "Ġal": 764,
      "ass": 765,
      "Ġset": 766,
      "gro": 767,
      "itle": 768,
      "error": 769,
      "ong": 770,
      "heck": 771,
      "ule": 772,
      "user": 773,
      "ild": 774,
      "eng": 775,
      "class": 776,
      "Ċĉĉĉĉĉĉ": 777,
      "Ġby": 778,
      "To": 779,
      "Ġdata": 780,
      "ache": 781,
      "En": 782,
      "ix": 783,
      "low": 784,
      "file": 785,
      "Ġ!=": 786,
      "Ġnull": 787,
      "read": 788,
      "Ġme": 789,
      "atch": 790,
      "rc": 791,
      "value": 792,
      "Ġ\\": 793,
      "reate": 794,
      "Ġ3": 795,
      "ang": 796,
      "['": 797,
      "Ġfalse": 798,
      "oint": 799,
      "ail": 800,
      "var": 801,
      "čĊč": 802,
      "ĠRe": 803,
      "app": 804,
      "ill": 805,
      "ated": 806,
      "translation": 807,
      "Se": 808,
      "nb": 809,
      "Ġthat": 810,
      "ies": 811,
      "yle": 812,
      "line": 813,
      "ULL": 814,
      "10": 815,
      "idth": 816,
      "Ġas": 817,
      "ception": 818,
      "ĊĠĠĠĠĠĠĠĠĠĠĠĠĠĠĠĠĠĠĠĠĠĠĠ": 819,
      "Ġid": 820,
      "array": 821,
      "Ġtrue": 822,
      "Ġfile": 823,
      "ide": 824,
      "lect": 825,
      "12": 826,
      "ms": 827,
      "ax": 828,
      "16": 829,
      "ME": 830,
      "ĠĠĠĠĠĠ": 831,
      "amp": 832,
      "date": 833,
      "rr": 834,
      "},": 835,
      "Ġuse": 836,
      "ader": 837,
      "static": 838,
      "icense": 839,
      "Value": 840,
      "vice": 841,
      "ument": 842,
      "include": 843,
      "riv": 844,
      "urre": 845,
      "MA": 846,
      "nbsp": 847,
      "thod": 848,
      "ork": 849,
      "ard": 850,
      "],": 851,
      "Ġsh": 852,
      "Ġ);": 853,
      "lab": 854,
      "ength": 855,
      "ĠIn": 856,
      "ĠThe": 857,
      "og": 858,
      "TR": 859,
      "Ġdo": 860,
      "Ġ`": 861,
      "ery": 862,
      "odel": 863,
      "IC": 864,
      "ou": 865,
      "Ch": 866,
      "Data": 867,
      "text": 868,
      "\";": 869,
      "und": 870,
      "CO": 871,
      "):": 872,
      "ask": 873,
      "ust": 874,
      "back": 875,
      "pert": 876,
      "gs": 877,
      "ww": 878,
      "Ġ4": 879,
      "/>": 880,
      "čĊĠĠĠ": 881,
      "atus": 882,
      "UT": 883,
      "64": 884,
      "\":": 885,
      "####": 886,
      "];": 887,
      "void": 888,
      "unt": 889,
      "ast": 890,
      "ĠLicense": 891,
      "of": 892,
      "čĊĠĠĠĠĠĠĠ": 893,
      "gr": 894,
      "urrent": 895,
      "pec": 896,
      "\")": 897,
      "Ġfrom": 898,
      "be": 899,
      "ptions": 900,
      "self": 901,
      "ĊĊĉ": 902,
      "Ġ},": 903,
      "PE": 904,
      "11": 905,
      "Ġline": 906,
      "md": 907,
      "FF": 908,
      "Ġres": 909,
      "Set": 910,
      "js": 911,
      "CH": 912,
      "Ġat": 913,
      "info": 914,
      "inal": 915,
      "sign": 916,
      "right": 917,
      "Ċĉĉĉĉĉ": 918,
      "Ġ||": 919,
      "ens": 920,
      "Ġ__": 921,
      "Exception": 922,
      "Ġ(!": 923,
      "new": 924,
      "')": 925,
      "Ar": 926,
      "Ġx": 927,
      "ave": 928,
      "Ġu": 929,
      "arch": 930,
      "lient": 931,
      "ence": 932,
      "rror": 933,
      "order": 934,
      "ĠNULL": 935,
      "čĊĉ": 936,
      "umber": 937,
      "yst": 938,
      "LA": 939,
      "own": 940,
      "br": 941,
      "RO": 942,
      "Ġcol": 943,
      "ec": 944,
      "reak": 945,
      "ION": 946,
      "spon": 947,
      "pre": 948,
      "++": 949,
      "Ġ/**": 950,
      "Get": 951,
      "arget": 952,
      "let": 953,
      "Col": 954,
      "\"></": 955,
      "rame": 956,
      "isp": 957,
      "eb": 958,
      "Ġ?": 959,
      "ry": 960,
      "Me": 961,
      "ystem": 962,
      "Ġend": 963,
      "Ġstring": 964,
      "ffer": 965,
      "');": 966,
      "IG": 967,
      "index": 968,
      "rite": 969,
      "load": 970,
      "AD": 971,
      "link": 972,
      "location": 973,
      "Ġ--": 974,
      "ound": 975,
      "ach": 976,
      "\"/>": 977,
      "].": 978,
      "ty": 979,
      "02": 980,
      "Object": 981,
      "min": 982,
      "Ġcom": 983,
      "opy": 984,
      "LO": 985,
      "ne": 986,
      "mit": 987,
      "table": 988,
      "stance": 989,
      "top": 990,
      "ger": 991,
      "ob": 992,
      "comp": 993,
      "().": 994,
      "ount": 995,
      "script": 996,
      "Ġ5": 997,
      "qual": 998,
      "his": 999,
      "Ġso": 1000,
      "const": 1001,
      "Ġpar": 1002,
      "ssion": 1003,
      "oul": 1004,
      "/**": 1005,
      "Res": 1006,
      "Ġcase": 1007,
      "di": 1008,
      "ool": 1009,
      "tribut": 1010,
      "odule": 1011,
      "ĊĠĠĠĠĠĠĠĠĠĠĠĠĠ": 1012,
      "for": 1013,
      "Par": 1014,
      "());": 1015,
      "ould": 1016,
      "Error": 1017,
      "hed": 1018,
      "yn": 1019,
      "Ġchar": 1020,
      "Ġare": 1021,
      "item": 1022,
      "Ser": 1023,
      "reg": 1024,
      "so": 1025,
      "ĠString": 1026,
      "ere": 1027,
      "Ke": 1028,
      "PI": 1029,
      "ream": 1030,
      "Ġstatic": 1031,
      "(&": 1032,
      "left": 1033,
      "ersion": 1034,
      "Ġk": 1035,
      "ava": 1036,
      "ifi": 1037,
      "ann": 1038,
      "Ġadd": 1039,
      "public": 1040,
      "ton": 1041,
      "emp": 1042,
      "function": 1043,
      "org": 1044,
      "File": 1045,
      "nav": 1046,
      "Ġsize": 1047,
      "Key": 1048,
      "._": 1049,
      "utton": 1050,
      "Ġ<<": 1051,
      "test": 1052,
      "Ġcomp": 1053,
      "INT": 1054,
      "ssert": 1055,
      "time": 1056,
      "Bu": 1057,
      "lean": 1058,
      "map": 1059,
      "ther": 1060,
      "Ġarray": 1061,
      "mb": 1062,
      "Ġhe": 1063,
      "(),": 1064,
      "GE": 1065,
      "pect": 1066,
      "late": 1067,
      "////////": 1068,
      "url": 1069,
      "AB": 1070,
      "sponse": 1071,
      "ilter": 1072,
      "ash": 1073,
      "quire": 1074,
      "signed": 1075,
      "ee": 1076,
      "':": 1077,
      "='": 1078,
      "count": 1079,
      "Ġout": 1080,
      "arent": 1081,
      "IS": 1082,
      "AC": 1083,
      "Ġimp": 1084,
      "';": 1085,
      "uth": 1086,
      "rivate": 1087,
      "tem": 1088,
      "Ġtest": 1089,
      "irst": 1090,
      "perty": 1091,
      "space": 1092,
      "sub": 1093,
      "indow": 1094,
      "================": 1095,
      "bar": 1096,
      "ĠQ": 1097,
      "};": 1098,
      "Ġwe": 1099,
      "25": 1100,
      "000": 1101,
      "Ġbu": 1102,
      "33": 1103,
      "Ġli": 1104,
      "face": 1105,
      "Sc": 1106,
      "Test": 1107,
      "TE": 1108,
      "ĊĠĠĠĠĠĠĠĠĠĠĠĠĠĠĠĠĠĠĠĠĠĠĠĠĠĠĠĠĠĠĠĠ": 1109,
      "mary": 1110,
      "path": 1111,
      "Ġen": 1112,
      "ting": 1113,
      "ameter": 1114,
      "ody": 1115,
      "Tr": 1116,
      "gin": 1117,
      "Ġstruct": 1118,
      "Ġcan": 1119,
      "ern": 1120,
      "UR": 1121,
      "cl": 1122,
      "--------------------------------": 1123,
      "unc": 1124,
      "ĉĉĉĉ": 1125,
      "mand": 1126,
      "Ġorg": 1127,
      "config": 1128,
      "UN": 1129,
      "ded": 1130,
      "ud": 1131,
      "osition": 1132,
      "Un": 1133,
      "Ġresult": 1134,
      "20": 1135,
      "cp": 1136,
      "ĠThis": 1137,
      "ING": 1138,
      "ccess": 1139,
      "Ġprivate": 1140,
      "gle": 1141,
      "Event": 1142,
      "Comp": 1143,
      "Node": 1144,
      "Info": 1145,
      "work": 1146,
      "nd": 1147,
      "Item": 1148,
      "ĠJ": 1149,
      "label": 1150,
      "MP": 1151,
      "Ġwill": 1152,
      "group": 1153,
      "ual": 1154,
      "sum": 1155,
      "99": 1156,
      "Time": 1157,
      "Ġsc": 1158,
      "length": 1159,
      "loat": 1160,
      "over": 1161,
      "Ġlist": 1162,
      "())": 1163,
      "isplay": 1164,
      "Ġ///": 1165,
      "block": 1166,
      "color": 1167,
      "print": 1168,
      "rap": 1169,
      "At": 1170,
      "fer": 1171,
      "ware": 1172,
      "ep": 1173,
      "istr": 1174,
      "ĊĊĠĠĠĠĠĠĠĠĠĠĠ": 1175,
      "icon": 1176,
      "move": 1177,
      "TY": 1178,
      "15": 1179,
      "ify": 1180,
      "ocument": 1181,
      "pack": 1182,
      "enu": 1183,
      "input": 1184,
      "!--": 1185,
      "IL": 1186,
      "util": 1187,
      "Ġerror": 1188,
      "ĊĠĠĠĠĠĠĠĠĠĠĠĠĠĠĠĠĠĠĠĠĠĠĠĠĠĠĠ": 1189,
      "ground": 1190,
      "cc": 1191,
      "rit": 1192,
      "action": 1193,
      "roup": 1194,
      "state": 1195,
      "čĊĠĠĠĠĠĠĠĠĠĠĠ": 1196,
      "roll": 1197,
      "lete": 1198,
      "ler": 1199,
      "umn": 1200,
      "Text": 1201,
      "node": 1202,
      "db": 1203,
      "andle": 1204,
      "ĠĠĠĠĠĠĠĠĠĠĠĠĠĠĠĠĠĠĠĠĠĠĠĠĠĠĠĠĠĠĠĠ": 1205,
      "State": 1206,
      "Ġup": 1207,
      "rol": 1208,
      "fore": 1209,
      "ses": 1210,
      "len": 1211,
      "Ġyou": 1212,
      "ta": 1213,
      "page": 1214,
      "vel": 1215,
      "By": 1216,
      "ED": 1217,
      "TH": 1218,
      "Ġkey": 1219,
      "Ġarg": 1220,
      "Ġval": 1221,
      "php": 1222,
      "ark": 1223,
      "[]": 1224,
      "init": 1225,
      "mi": 1226,
      "ific": 1227,
      "Ġ((": 1228,
      "ENT": 1229,
      "=\"../../": 1230,
      "Class": 1231,
      "onent": 1232,
      "Ġobject": 1233,
      "ui": 1234,
      "lags": 1235,
      "start": 1236,
      "ample": 1237,
      "last": 1238,
      "US": 1239,
      "Ġ8": 1240,
      "Add": 1241,
      "Element": 1242,
      "lection": 1243,
      "tern": 1244,
      ".</": 1245,
      "\"\"": 1246,
      "ations": 1247,
      "Ġall": 1248,
      "view": 1249,
      "title": 1250,
      "irect": 1251,
      "bt": 1252,
      "base": 1253,
      "14": 1254,
      "ES": 1255,
      "pen": 1256,
      "sk": 1257,
      "buf": 1258,
      "case": 1259,
      "no": 1260,
      "********************************": 1261,
      "Ġtitle": 1262,
      "Index": 1263,
      "off": 1264,
      "Map": 1265,
      "field": 1266,
      "endif": 1267,
      "ake": 1268,
      "width": 1269,
      "ute": 1270,
      "ale": 1271,
      "AS": 1272,
      "ken": 1273,
      "oolean": 1274,
      "18": 1275,
      "ector": 1276,
      "OT": 1277,
      "ps": 1278,
      "sed": 1279,
      "query": 1280,
      "try": 1281,
      "mage": 1282,
      "scri": 1283,
      "uble": 1284,
      "event": 1285,
      "ys": 1286,
      "do": 1287,
      "its": 1288,
      "mem": 1289,
      "ush": 1290,
      "*/": 1291,
      "image": 1292,
      "ined": 1293,
      "Ġback": 1294,
      "66": 1295,
      "using": 1296,
      "not": 1297,
      "ager": 1298,
      "Ġfinal": 1299,
      "Ġassert": 1300,
      "CON": 1301,
      "ERR": 1302,
      "ret": 1303,
      "DI": 1304,
      "result": 1305,
      "View": 1306,
      "style": 1307,
      "Ġcontent": 1308,
      "word": 1309,
      "https": 1310,
      "Ġ-->": 1311,
      "ainer": 1312,
      "char": 1313,
      "Ġ+=": 1314,
      "quot": 1315,
      "((": 1316,
      "ia": 1317,
      "Sh": 1318,
      "ick": 1319,
      "lace": 1320,
      "Ġstr": 1321,
      "ftware": 1322,
      "CE": 1323,
      "box": 1324,
      "ie": 1325,
      "af": 1326,
      "04": 1327,
      "ĊĠĠĠĠĠĠĠĠĠĠĠĠ": 1328,
      "mon": 1329,
      "13": 1330,
      "ride": 1331,
      "Config": 1332,
      "red": 1333,
      "TD": 1334,
      "EX": 1335,
      "default": 1336,
      "lat": 1337,
      "Com": 1338,
      "Ġtime": 1339,
      "argin": 1340,
      "max": 1341,
      "entry": 1342,
      "raw": 1343,
      "sm": 1344,
      "čĊĉĉ": 1345,
      "Size": 1346,
      "Ġbreak": 1347,
      "by": 1348,
      "Ġspec": 1349,
      "ĠK": 1350,
      "ld": 1351,
      "ister": 1352,
      "num": 1353,
      "tx": 1354,
      "priv": 1355,
      "Ġro": 1356,
      "OP": 1357,
      "Ġerr": 1358,
      "create": 1359,
      "valid": 1360,
      "allback": 1361,
      "lob": 1362,
      "ook": 1363,
      "ell": 1364,
      "Ġsrc": 1365,
      "esc": 1366,
      "55": 1367,
      "www": 1368,
      "Ġunder": 1369,
      "Qu": 1370,
      "tom": 1371,
      "cur": 1372,
      "upport": 1373,
      "tribute": 1374,
      "Field": 1375,
      "abled": 1376,
      "assert": 1377,
      "Array": 1378,
      "Form": 1379,
      "Path": 1380,
      "net": 1381,
      ">&": 1382,
      "SI": 1383,
      "py": 1384,
      "content": 1385,
      "anager": 1386,
      "fin": 1387,
      ";&": 1388,
      "24": 1389,
      "Ġapp": 1390,
      "Ġser": 1391,
      "bug": 1392,
      "from": 1393,
      "uto": 1394,
      "object": 1395,
      "ng": 1396,
      "He": 1397,
      "next": 1398,
      "ning": 1399,
      "andler": 1400,
      "TI": 1401,
      "ock": 1402,
      "Context": 1403,
      "Message": 1404,
      "uint": 1405,
      "verride": 1406,
      "lib": 1407,
      "uration": 1408,
      "dt": 1409,
      "ĠIf": 1410,
      "Ġdefault": 1411,
      "Ġper": 1412,
      "OL": 1413,
      "body": 1414,
      "rint": 1415,
      "core": 1416,
      "Request": 1417,
      "temp": 1418,
      "pi": 1419,
      "čĊĠ": 1420,
      "Ġthrow": 1421,
      ";</": 1422,
      "ATE": 1423,
      "cond": 1424,
      "head": 1425,
      "ox": 1426,
      "Ġhave": 1427,
      "Ġ});": 1428,
      "Equal": 1429,
      "Ġbool": 1430,
      "EL": 1431,
      "led": 1432,
      "ĠGet": 1433,
      "Ġ6": 1434,
      "mat": 1435,
      "ome": 1436,
      "MO": 1437,
      "Ġshould": 1438,
      "FI": 1439,
      "ync": 1440,
      "AME": 1441,
      "fs": 1442,
      "ished": 1443,
      "ĠAN": 1444,
      "pos": 1445,
      "Ġno": 1446,
      "check": 1447,
      "DO": 1448,
      "ich": 1449,
      "local": 1450,
      "ptr": 1451,
      "layer": 1452,
      "Ġext": 1453,
      "vers": 1454,
      "Code": 1455,
      "press": 1456,
      "summary": 1457,
      "80": 1458,
      "css": 1459,
      "Ġtext": 1460,
      "write": 1461,
      "point": 1462,
      "Ġtrans": 1463,
      "ature": 1464,
      "Ġreg": 1465,
      "``": 1466,
      "Ġversion": 1467,
      "BU": 1468,
      "context": 1469,
      "ĊĠĠĠĠĠĠĠĠĠĠĠĠĠĠĠĠĠĠĠĠĠĠĠĠĠĠĠĠĠĠĠĠĠĠĠĠĠĠĠĠ": 1470,
      "Ġle": 1471,
      "Ġnode": 1472,
      "Ġany": 1473,
      "func": 1474,
      "Th": 1475,
      "'s": 1476,
      "adding": 1477,
      "Ġrequest": 1478,
      "dir": 1479,
      "istribut": 1480,
      "ible": 1481,
      "Ġne": 1482,
      "tings": 1483,
      "Ġuser": 1484,
      "ML": 1485,
      "Ġ===": 1486,
      "api": 1487,
      "IP": 1488,
      "lt": 1489,
      "TYPE": 1490,
      "])": 1491,
      "ottom": 1492,
      "30": 1493,
      "SC": 1494,
      "Ġcolor": 1495,
      "Ġsub": 1496,
      "NU": 1497,
      "Ġborder": 1498,
      "ĊĊĠĠĠĠĠ": 1499,
      "Ġcode": 1500,
      "Ġevent": 1501,
      "sw": 1502,
      "An": 1503,
      "Ġcurrent": 1504,
      "old": 1505,
      "the": 1506,
      "17": 1507,
      "opyright": 1508,
      "CK": 1509,
      "Ġcheck": 1510,
      "status": 1511,
      "dis": 1512,
      "apt": 1513,
      "lang": 1514,
      "module": 1515,
      "########": 1516,
      "SP": 1517,
      "lose": 1518,
      "'t": 1519,
      "Ġ};": 1520,
      "=\"+": 1521,
      "ĠX": 1522,
      "Ġstd": 1523,
      "annel": 1524,
      "22": 1525,
      "ider": 1526,
      "ner": 1527,
      "Ġ10": 1528,
      "ected": 1529,
      "Ġwidth": 1530,
      "19": 1531,
      "Ġmethod": 1532,
      "Ġhas": 1533,
      "UE": 1534,
      "web": 1535,
      "Up": 1536,
      "ename": 1537,
      "select": 1538,
      "Ġtarget": 1539,
      "ok": 1540,
      "ql": 1541,
      "Le": 1542,
      "ä¸": 1543,
      "AP": 1544,
      "ĠY": 1545,
      "ts": 1546,
      "cord": 1547,
      "Log": 1548,
      "ins": 1549,
      "idget": 1550,
      "tes": 1551,
      "ĊĠĠĠĠĠĠĠĠĠĠĠĠĠĠĠĠĠĠĠĠĠĠĠĠĠĠĠĠĠĠĠ": 1552,
      "button": 1553,
      "ics": 1554,
      "Ġz": 1555,
      "cept": 1556,
      "model": 1557,
      "PO": 1558,
      "gt": 1559,
      "las": 1560,
      "Ġjava": 1561,
      "Ġstart": 1562,
      "++)": 1563,
      "cho": 1564,
      "Ġlong": 1565,
      "til": 1566,
      "rep": 1567,
      "lugin": 1568,
      "ĊĠĠĠĠĠĠ": 1569,
      "Ġrequire": 1570,
      "ãģ": 1571,
      "Ġwhen": 1572,
      "Service": 1573,
      "=\"#": 1574,
      "Result": 1575,
      "ilder": 1576,
      "Ġ7": 1577,
      "apache": 1578,
      "current": 1579,
      "Table": 1580,
      "nection": 1581,
      "Ġinter": 1582,
      "src": 1583,
      "ĠĠĠĠĠĠĠĠĠĠĠ": 1584,
      "Int": 1585,
      "HE": 1586,
      "Ġstyle": 1587,
      "ux": 1588,
      "201": 1589,
      "Ġuint": 1590,
      "Color": 1591,
      "wh": 1592,
      "Ġconfig": 1593,
      "Ġ:=": 1594,
      "CL": 1595,
      "ABLE": 1596,
      "enter": 1597,
      "UP": 1598,
      "Ġlog": 1599,
      "Ġnumber": 1600,
      "Of": 1601,
      "Ġused": 1602,
      "itor": 1603,
      "Ġ($": 1604,
      "options": 1605,
      "lear": 1606,
      "50": 1607,
      "ĠSt": 1608,
      "Not": 1609,
      "oogle": 1610,
      "ise": 1611,
      "ET": 1612,
      "bl": 1613,
      "client": 1614,
      "Ġ\"\\": 1615,
      "Ð°": 1616,
      "ĠCon": 1617,
      "package": 1618,
      "pc": 1619,
      "Ġmay": 1620,
      "ions": 1621,
      "mod": 1622,
      "Query": 1623,
      "font": 1624,
      "addr": 1625,
      "Ġbackground": 1626,
      "down": 1627,
      "Model": 1628,
      "break": 1629,
      "34": 1630,
      "Ġfield": 1631,
      "Ġstate": 1632,
      "Def": 1633,
      "=\"../": 1634,
      "ĠGener": 1635,
      "=\"../../../../": 1636,
      "Or": 1637,
      "ally": 1638,
      "Ġ201": 1639,
      "ĠCON": 1640,
      "device": 1641,
      "Ġindex": 1642,
      "we": 1643,
      "true": 1644,
      "itch": 1645,
      "Ġitem": 1646,
      "ĠSet": 1647,
      "license": 1648,
      "28": 1649,
      "ZE": 1650,
      "header": 1651,
      "ified": 1652,
      "Count": 1653,
      "ved": 1654,
      "enc": 1655,
      "ait": 1656,
      "unsigned": 1657,
      "oto": 1658,
      "Loc": 1659,
      "Out": 1660,
      "ializ": 1661,
      "inter": 1662,
      "tot": 1663,
      "The": 1664,
      "ices": 1665,
      "ĊĉĠĠĠ": 1666,
      "Ġinput": 1667,
      "Ġoff": 1668,
      "Ġblock": 1669,
      "Ġread": 1670,
      "btn": 1671,
      "ART": 1672,
      "Ġret": 1673,
      "ĠSystem": 1674,
      "IO": 1675,
      "mt": 1676,
      "VER": 1677,
      "args": 1678,
      "ical": 1679,
      "ĠOR": 1680,
      "ren": 1681,
      "FA": 1682,
      "[\"": 1683,
      "pl": 1684,
      "attr": 1685,
      "ustom": 1686,
      "ĠÐ": 1687,
      "search": 1688,
      "offset": 1689,
      "ilename": 1690,
      ">(": 1691,
      "uthor": 1692,
      "ORT": 1693,
      "gram": 1694,
      "rop": 1695,
      "Ġdistribut": 1696,
      "User": 1697,
      "scription": 1698,
      "ef": 1699,
      "Is": 1700,
      "pected": 1701,
      "iter": 1702,
      "OUT": 1703,
      "doc": 1704,
      "lobal": 1705,
      "On": 1706,
      "Ġbase": 1707,
      "post": 1708,
      "lin": 1709,
      "tail": 1710,
      "Manager": 1711,
      "ĠOF": 1712,
      "...": 1713,
      "ateg": 1714,
      "40": 1715,
      "Group": 1716,
      "Ġelement": 1717,
      "pan": 1718,
      "Inter": 1719,
      "Ġmax": 1720,
      "ference": 1721,
      "rag": 1722,
      "AM": 1723,
      "Ġhttp": 1724,
      "rl": 1725,
      "aw": 1726,
      "Point": 1727,
      "ĠIN": 1728,
      "Ġunsigned": 1729,
      "mpty": 1730,
      "obj": 1731,
      "host": 1732,
      "request": 1733,
      "]);": 1734,
      "ca": 1735,
      "77": 1736,
      "Ġlo": 1737,
      "For": 1738,
      "vert": 1739,
      "frame": 1740,
      "cope": 1741,
      "SH": 1742,
      "ĊĊĉĉ": 1743,
      "ONT": 1744,
      "height": 1745,
      "req": 1746,
      "mode": 1747,
      "ĠPro": 1748,
      "iled": 1749,
      "IM": 1750,
      "NO": 1751,
      "Reg": 1752,
      "adi": 1753,
      "ifier": 1754,
      "Ġcreate": 1755,
      "method": 1756,
      "iable": 1757,
      "REG": 1758,
      "Ġmargin": 1759,
      "active": 1760,
      "actory": 1761,
      "VAL": 1762,
      "IF": 1763,
      "uccess": 1764,
      "bottom": 1765,
      "////////////////": 1766,
      "Ġmessage": 1767,
      "fa": 1768,
      "Ð¾": 1769,
      "Ġtable": 1770,
      "lication": 1771,
      "Ġpre": 1772,
      "has": 1773,
      "ameters": 1774,
      "SET": 1775,
      "HT": 1776,
      "lick": 1777,
      "REF": 1778,
      "tag": 1779,
      "irt": 1780,
      "ai": 1781,
      "lasses": 1782,
      "menu": 1783,
      "Ġcopy": 1784,
      "Override": 1785,
      "Ġinstance": 1786,
      "ams": 1787,
      "Ġwhich": 1788,
      "){": 1789,
      "Ġpath": 1790,
      "lig": 1791,
      "tected": 1792,
      "ctx": 1793,
      "<!--": 1794,
      "append": 1795,
      "App": 1796,
      "mm": 1797,
      "open": 1798,
      "Ġsource": 1799,
      "ï¼": 1800,
      "Ġonly": 1801,
      "sg": 1802,
      "ãĥ": 1803,
      "DB": 1804,
      "Ġinit": 1805,
      "MM": 1806,
      "Ġab": 1807,
      "ape": 1808,
      "dr": 1809,
      "lease": 1810,
      "queue": 1811,
      "option": 1812,
      "Ġpoint": 1813,
      "TO": 1814,
      "ithub": 1815,
      "Property": 1816,
      "bj": 1817,
      "23": 1818,
      "Stream": 1819,
      "Ġpage": 1820,
      "roller": 1821,
      "60": 1822,
      "child": 1823,
      "version": 1824,
      "čĊĠĠĠĠĠĠĠĠĠĠĠĠĠĠĠ": 1825,
      "With": 1826,
      "format": 1827,
      "null": 1828,
      "uage": 1829,
      "mission": 1830,
      "Ðµ": 1831,
      "Ġother": 1832,
      "][": 1833,
      "vide": 1834,
      "Ġcall": 1835,
      "lable": 1836,
      "Ġcontext": 1837,
      "Ġmod": 1838,
      "Val": 1839,
      "EE": 1840,
      "ĠEx": 1841,
      "private": 1842,
      "img": 1843,
      "FONT": 1844,
      ")</": 1845,
      "lag": 1846,
      "Trans": 1847,
      "fe": 1848,
      "du": 1849,
      "CC": 1850,
      "ĠĠĠĠĠĠĠĠĠ": 1851,
      "idd": 1852,
      "msg": 1853,
      "ater": 1854,
      "buffer": 1855,
      "her": 1856,
      "27": 1857,
      "Desc": 1858,
      "std": 1859,
      "Be": 1860,
      "emplate": 1861,
      "Ġbut": 1862,
      "ank": 1863,
      "Ġoptions": 1864,
      "son": 1865,
      "ĠPublic": 1866,
      "Status": 1867,
      "Ġnil": 1868,
      "github": 1869,
      "flags": 1870,
      "<?": 1871,
      "reen": 1872,
      "Ġone": 1873,
      "Util": 1874,
      "ERT": 1875,
      "cs": 1876,
      "Base": 1877,
      "push": 1878,
      "Ġ$(": 1879,
      "parent": 1880,
      "29": 1881,
      "Ġ->": 1882,
      "Ġ,": 1883,
      "Ġright": 1884,
      "Ġad": 1885,
      "100": 1886,
      "older": 1887,
      "filter": 1888,
      "Client": 1889,
      "Ġfa": 1890,
      "PRO": 1891,
      "88": 1892,
      "RAN": 1893,
      "ffff": 1894,
      "Ġpart": 1895,
      "VE": 1896,
      "update": 1897,
      "Lo": 1898,
      "namespace": 1899,
      "](": 1900,
      "Instance": 1901,
      "Ġ*)": 1902,
      "Ġdis": 1903,
      "As": 1904,
      "target": 1905,
      "Ġprint": 1906,
      "Content": 1907,
      "Action": 1908,
      "Response": 1909,
      "LASS": 1910,
      "ends": 1911,
      "Date": 1912,
      "Ġ\"\"\"": 1913,
      "vis": 1914,
      "MS": 1915,
      "ĊĠĠĠĠĠĠĠĠĠĠĠĠĠĠĠĠĠ": 1916,
      "params": 1917,
      "first": 1918,
      "ume": 1919,
      "03": 1920,
      "Ġ>=": 1921,
      "meta": 1922,
      "perties": 1923,
      "ĠUn": 1924,
      "Image": 1925,
      "Ġ9": 1926,
      "lp": 1927,
      "END": 1928,
      "ĠCopyright": 1929,
      "ote": 1930,
      "ba": 1931,
      "Ġfont": 1932,
      "ative": 1933,
      "Ġyour": 1934,
      "26": 1935,
      "44": 1936,
      "section": 1937,
      "ster": 1938,
      "Str": 1939,
      "ĠAr": 1940,
      "free": 1941,
      "cmd": 1942,
      "ĠGNU": 1943,
      "LI": 1944,
      "my": 1945,
      "From": 1946,
      "asc": 1947,
      "Ġ/>": 1948,
      "dl": 1949,
      "teger": 1950,
      "FIG": 1951,
      "main": 1952,
      "\"),": 1953,
      "igh": 1954,
      "PC": 1955,
      "à¤": 1956,
      "Ġ()": 1957,
      "ãĤ": 1958,
      "Line": 1959,
      "Ġimport": 1960,
      "Ġdistributed": 1961,
      "ĠGeneral": 1962,
      "omain": 1963,
      "Ad": 1964,
      "Method": 1965,
      "Input": 1966,
      "fd": 1967,
      "Ġlen": 1968,
      "ender": 1969,
      "formation": 1970,
      "Bar": 1971,
      "ict": 1972,
      "ternal": 1973,
      "Ġinst": 1974,
      "ats": 1975,
      "imer": 1976,
      "Ġboolean": 1977,
      "element": 1978,
      "\"]": 1979,
      "NE": 1980,
      "DR": 1981,
      "bit": 1982,
      "ialog": 1983,
      "39": 1984,
      "Sub": 1985,
      "navbar": 1986,
      "conn": 1987,
      "(_": 1988,
      "ug": 1989,
      "čĊĉĉĉ": 1990,
      "Ġact": 1991,
      "jav": 1992,
      "ymb": 1993,
      "irtual": 1994,
      "Ġmore": 1995,
      "Ð¸": 1996,
      "08": 1997,
      "tab": 1998,
      "Frame": 1999,
      "75": 2000,
      "Al": 2001,
      "bool": 2002,
      "Ċĉĉĉĉĉĉĉ": 2003,
      "///": 2004,
      "false": 2005,
      "Buffer": 2006,
      "ments": 2007,
      "Lay": 2008,
      "Ġtry": 2009,
      "tree": 2010,
      "ITY": 2011,
      "Ġvalues": 2012,
      "Ġheight": 2013,
      "ĊĠĠĠĠĠĠĠĠĠĠĠĠĠĠĠĠĠĠĠĠĠĠĠĠĠĠĠĠĠĠĠĠĠĠĠ": 2014,
      "ĠĠĠĠĠĠĠĠĠĠ": 2015,
      "%;": 2016,
      "heet": 2017,
      "Ġoffset": 2018,
      "'),": 2019,
      "Ġthen": 2020,
      "ymbol": 2021,
      "Ġoper": 2022,
      "cache": 2023,
      "cf": 2024,
      "google": 2025,
      "CODE": 2026,
      "FO": 2027,
      "STR": 2028,
      "35": 2029,
      "Ġmust": 2030,
      "ĉĉĉ": 2031,
      "Ġdisplay": 2032,
      "stream": 2033,
      "Block": 2034,
      "Ġrep": 2035,
      "({": 2036,
      "ĠTr": 2037,
      "GL": 2038,
      "Ġdocument": 2039,
      "ĠSee": 2040,
      "Window": 2041,
      "All": 2042,
      "ns": 2043,
      "medi": 2044,
      "ĊĉĠ": 2045,
      "Ġq": 2046,
      "ĠSo": 2047,
      "Page": 2048,
      "Select": 2049,
      "ĠANY": 2050,
      "oin": 2051,
      "Nav": 2052,
      "PL": 2053,
      "proto": 2054,
      "Box": 2055,
      "uper": 2056,
      "kit": 2057,
      "before": 2058,
      "Ġrun": 2059,
      "ower": 2060,
      "Ref": 2061,
      "find": 2062,
      "Ġfirst": 2063,
      "Ġchange": 2064,
      "================================": 2065,
      "raph": 2066,
      "duct": 2067,
      "Ġfloat": 2068,
      "Ġ100": 2069,
      "ĠReturn": 2070,
      "Change": 2071,
      "Ġleft": 2072,
      "Tra": 2073,
      "CP": 2074,
      "refer": 2075,
      "SIZE": 2076,
      "remove": 2077,
      "Ġoutput": 2078,
      "ERROR": 2079,
      "Ġ16": 2080,
      "lem": 2081,
      "ormal": 2082,
      "38": 2083,
      "cket": 2084,
      "mark": 2085,
      "Ed": 2086,
      "05": 2087,
      "Source": 2088,
      "printf": 2089,
      "river": 2090,
      "atab": 2091,
      "Ġsizeof": 2092,
      "call": 2093,
      "defined": 2094,
      "pend": 2095,
      "ollow": 2096,
      "lex": 2097,
      "ility": 2098,
      "cd": 2099,
      "Ġwork": 2100,
      "ding": 2101,
      "Ġmem": 2102,
      "server": 2103,
      "ors": 2104,
      "ÑĤ": 2105,
      "che": 2106,
      "sd": 2107,
      "Handler": 2108,
      "});": 2109,
      "ension": 2110,
      "opt": 2111,
      "Ġcal": 2112,
      "Ġusing": 2113,
      "finished": 2114,
      "strong": 2115,
      "Resource": 2116,
      "KE": 2117,
      "Ġag": 2118,
      "abel": 2119,
      "36": 2120,
      "lot": 2121,
      "show": 2122,
      "Builder": 2123,
      "Ġmin": 2124,
      "Imp": 2125,
      "Ġrel": 2126,
      "cpu": 2127,
      "Check": 2128,
      "Ġsoftware": 2129,
      "flow": 2130,
      "00000000": 2131,
      "roid": 2132,
      "No": 2133,
      "ĠWAR": 2134,
      "Ġurl": 2135,
      "End": 2136,
      "resent": 2137,
      "Component": 2138,
      "ULT": 2139,
      "Ġwhile": 2140,
      "float": 2141,
      "ci": 2142,
      "çļ": 2143,
      ".$": 2144,
      "xy": 2145,
      "Ġwas": 2146,
      "ates": 2147,
      "ITH": 2148,
      "çļĦ": 2149,
      "aint": 2150,
      "Format": 2151,
      "ĊĊĠĠĠĠĠĠĠĠĠĠĠĠĠĠĠ": 2152,
      "rt": 2153,
      "56": 2154,
      "BUG": 2155,
      "True": 2156,
      "Ġdouble": 2157,
      "\"))": 2158,
      "fter": 2159,
      "refix": 2160,
      "alloc": 2161,
      "Ġnum": 2162,
      "ALL": 2163,
      "Ġoption": 2164,
      "čĊĠĠĠĠ": 2165,
      "Ġmap": 2166,
      "Start": 2167,
      "control": 2168,
      "assword": 2169,
      "NAME": 2170,
      "entity": 2171,
      "ither": 2172,
      "rows": 2173,
      "cre": 2174,
      "riter": 2175,
      "Command": 2176,
      "Var": 2177,
      "close": 2178,
      "ãĢ": 2179,
      "irectory": 2180,
      "Ġpadding": 2181,
      "json": 2182,
      "equal": 2183,
      "Ġneed": 2184,
      "ascript": 2185,
      "ures": 2186,
      "atabase": 2187,
      "ceiv": 2188,
      "unfinished": 2189,
      "000000": 2190,
      "vider": 2191,
      "border": 2192,
      "cast": 2193,
      "ĠĊ": 2194,
      "aa": 2195,
      "spec": 2196,
      "Ġac": 2197,
      "display": 2198,
      "png": 2199,
      "IGN": 2200,
      "New": 2201,
      "Ġposition": 2202,
      "ĠEX": 2203,
      "rix": 2204,
      "template": 2205,
      "COL": 2206,
      "ernal": 2207,
      "Function": 2208,
      "ĠList": 2209,
      "Number": 2210,
      "ĠNone": 2211,
      "store": 2212,
      "21": 2213,
      "apter": 2214,
      "any": 2215,
      "Ġla": 2216,
      "Ġsp": 2217,
      "GET": 2218,
      "Link": 2219,
      "ackage": 2220,
      "78": 2221,
      "debug": 2222,
      "oot": 2223,
      "Default": 2224,
      "change": 2225,
      "System": 2226,
      "number": 2227,
      "Ġus": 2228,
      "PR": 2229,
      "pri": 2230,
      "ACK": 2231,
      "ĠDe": 2232,
      "ating": 2233,
      "tt": 2234,
      "Ġcount": 2235,
      "').": 2236,
      "Per": 2237,
      "CR": 2238,
      "Ġinclude": 2239,
      "ov": 2240,
      "ift": 2241,
      "\\\"": 2242,
      "uid": 2243,
      "lied": 2244,
      "totype": 2245,
      "MD": 2246,
      "tributes": 2247,
      "Attribute": 2248,
      "leg": 2249,
      "ĠYou": 2250,
      "ĠWARRAN": 2251,
      "orage": 2252,
      "MAX": 2253,
      "output": 2254,
      "light": 2255,
      "Hel": 2256,
      "Ġselect": 2257,
      "root": 2258,
      "pression": 2259,
      "orre": 2260,
      "Factory": 2261,
      "ification": 2262,
      "CTION": 2263,
      "ĠSoftware": 2264,
      "ĠObject": 2265,
      "SY": 2266,
      "anguage": 2267,
      "06": 2268,
      "Options": 2269,
      "Ġnet": 2270,
      "Ġ**": 2271,
      "09": 2272,
      "IR": 2273,
      "Ġgener": 2274,
      "PORT": 2275,
      "48": 2276,
      "ĠĠĠĠĠĠĠĠĠĠĠĠ": 2277,
      "adata": 2278,
      "ĠCh": 2279,
      "Button": 2280,
      "sheet": 2281,
      "Ġupdate": 2282,
      "Mem": 2283,
      "Filter": 2284,
      "Row": 2285,
      "container": 2286,
      "uch": 2287,
      "\").": 2288,
      "rid": 2289,
      "Ġar": 2290,
      "align": 2291,
      "arning": 2292,
      "Ð½": 2293,
      "ular": 2294,
      "tool": 2295,
      "Column": 2296,
      "()->": 2297,
      "less": 2298,
      "Ġbuffer": 2299,
      "run": 2300,
      "ansp": 2301,
      "ĠHREF": 2302,
      "Act": 2303,
      "Ġnext": 2304,
      "Ġlast": 2305,
      "ifdef": 2306,
      "olic": 2307,
      "ared": 2308,
      "200": 2309,
      "Ġtra": 2310,
      "Ġnone": 2311,
      "ubl": 2312,
      ")(": 2313,
      "javascript": 2314,
      "gn": 2315,
      "ecut": 2316,
      "STAT": 2317,
      "po": 2318,
      "SK": 2319,
      "ĊĊĊĊ": 2320,
      "iven": 2321,
      "Mode": 2322,
      "07": 2323,
      "annot": 2324,
      "ĠĠĠĠĠĠĠĠĠĠĠĠĠĠĠ": 2325,
      "tmp": 2326,
      "ĠIS": 2327,
      "require": 2328,
      "java": 2329,
      "ish": 2330,
      "Gener": 2331,
      "ains": 2332,
      "ĠDE": 2333,
      "Ġvalid": 2334,
      "ĠTest": 2335,
      "ATA": 2336,
      "card": 2337,
      "37": 2338,
      "Ġwithout": 2339,
      "Version": 2340,
      "FLA": 2341,
      "Off": 2342,
      "parse": 2343,
      "ĠCLASS": 2344,
      "Ġsupport": 2345,
      "Ġauto": 2346,
      "Ġstatus": 2347,
      "imple": 2348,
      "tails": 2349,
      "UB": 2350,
      "Ġformat": 2351,
      "Ġ200": 2352,
      "MB": 2353,
      "export": 2354,
      "Token": 2355,
      "Ġover": 2356,
      "unk": 2357,
      "Ġaddress": 2358,
      "Ġ;": 2359,
      "ÑĢ": 2360,
      "Ġass": 2361,
      "Label": 2362,
      "ls": 2363,
      "Ġresponse": 2364,
      "Ġecho": 2365,
      "Ġfollow": 2366,
      "Ġter": 2367,
      "Ġmy": 2368,
      "ĊĠĠĠĠĠĠĠĠĠĠ": 2369,
      "ym": 2370,
      "ialize": 2371,
      "Length": 2372,
      "goto": 2373,
      "vm": 2374,
      "Ġgroup": 2375,
      "ĠINT": 2376,
      "instance": 2377,
      "gener": 2378,
      "ASE": 2379,
      "$(": 2380,
      "oper": 2381,
      "ĠAdd": 2382,
      "Ġtop": 2383,
      "Ġprogram": 2384,
      "window": 2385,
      "handle": 2386,
      "Ġmode": 2387,
      "Ġinto": 2388,
      "Met": 2389,
      "Ġsw": 2390,
      "match": 2391,
      "ategory": 2392,
      "task": 2393,
      "idden": 2394,
      "mut": 2395,
      "xx": 2396,
      "ï¼Į": 2397,
      "sol": 2398,
      "air": 2399,
      "Tag": 2400,
      "86": 2401,
      ",\"": 2402,
      "Ġmodule": 2403,
      "Ġdoes": 2404,
      "Ġ]": 2405,
      "ĠGL": 2406,
      "Ġfilename": 2407,
      "ero": 2408,
      "Ġeither": 2409,
      "Create": 2410,
      "common": 2411,
      "level": 2412,
      "AGE": 2413,
      "cal": 2414,
      "Style": 2415,
      "59": 2416,
      "AND": 2417,
      "Ġ>>": 2418,
      "Equals": 2419,
      "CI": 2420,
      "ingle": 2421,
      "Read": 2422,
      "env": 2423,
      "inue": 2424,
      "Ġparent": 2425,
      "position": 2426,
      "And": 2427,
      "Ġclient": 2428,
      "OF": 2429,
      "Ġcommand": 2430,
      "Ġthrows": 2431,
      "INE": 2432,
      "PRE": 2433,
      "ĠWITH": 2434,
      "CHAN": 2435,
      "adius": 2436,
      "Ġfree": 2437,
      "tra": 2438,
      "Ġdefined": 2439,
      "Cell": 2440,
      "desc": 2441,
      "Oper": 2442,
      "Ġprotected": 2443,
      "Null": 2444,
      "RL": 2445,
      "hash": 2446,
      "iff": 2447,
      "Ġalign": 2448,
      "build": 2449,
      "\"));": 2450,
      "ĊĠĠĠĠĠĠĠĠĠĠĠĠĠĠ": 2451,
      "uments": 2452,
      "ixed": 2453,
      "xml": 2454,
      "++;": 2455,
      "cb": 2456,
      "si": 2457,
      "untime": 2458,
      "udio": 2459,
      "Entry": 2460,
      "ven": 2461,
      "Ġwrite": 2462,
      "lip": 2463,
      "reference": 2464,
      "Ġdevice": 2465,
      "latform": 2466,
      "way": 2467,
      "à¦": 2468,
      "igger": 2469,
      "čĊčĊ": 2470,
      "BO": 2471,
      "structor": 2472,
      "Ġop": 2473,
      "ru": 2474,
      "Ġrequired": 2475,
      "Child": 2476,
      "Arg": 2477,
      "sole": 2478,
      "mask": 2479,
      "ĠSe": 2480,
      "TP": 2481,
      "resource": 2482,
      "Ġ<=": 2483,
      "vo": 2484,
      "Ġ{@": 2485,
      "\\\\": 2486,
      "Ġmodel": 2487,
      "54": 2488,
      "response": 2489,
      "','": 2490,
      "XX": 2491,
      "copy": 2492,
      "empty": 2493,
      "description": 2494,
      "Ġmatch": 2495,
      "olicy": 2496,
      "hover": 2497,
      "Ġimage": 2498,
      "register": 2499,
      "UI": 2500,
      "76": 2501,
      "ists": 2502,
      "hema": 2503,
      "SD": 2504,
      "dition": 2505,
      "ops": 2506,
      "Ġ(*": 2507,
      "Listener": 2508,
      "rowser": 2509,
      "bin": 2510,
      "ĠID": 2511,
      "ready": 2512,
      "side": 2513,
      "TER": 2514,
      "SR": 2515,
      "Ġ[]": 2516,
      "df": 2517,
      "AG": 2518,
      "prototype": 2519,
      "Ġcur": 2520,
      "Ã©": 2521,
      "rs": 2522,
      "FLAG": 2523,
      "Cache": 2524,
      "with": 2525,
      "ffect": 2526,
      "Ġlength": 2527,
      "ik": 2528,
      "ized": 2529,
      "attern": 2530,
      "})": 2531,
      "Ġargs": 2532,
      "ensor": 2533,
      "=>": 2534,
      "Ġ),": 2535,
      "resh": 2536,
      "ĊĠĠĠĠĊĠĠĠ": 2537,
      "Ġel": 2538,
      "gress": 2539,
      ">,": 2540,
      "Ġav": 2541,
      "&#": 2542,
      "rypt": 2543,
      "Ext": 2544,
      "ĠRE": 2545,
      "'>": 2546,
      "iss": 2547,
      "webkit": 2548,
      "Ġsk": 2549,
      "SA": 2550,
      "Char": 2551,
      "Ġport": 2552,
      "Ġextends": 2553,
      "Ġmake": 2554,
      "inst": 2555,
      "ĠCont": 2556,
      "Ġgiven": 2557,
      "Ġlink": 2558,
      "pu": 2559,
      "74": 2560,
      "Ġimplement": 2561,
      "(*": 2562,
      "SON": 2563,
      "property": 2564,
      "ĠTHE": 2565,
      "Init": 2566,
      "icle": 2567,
      "sor": 2568,
      "author": 2569,
      "ĠĠĠĠĠĠĠĠĠĠĠĠĠ": 2570,
      "Update": 2571,
      ":</": 2572,
      "ILITY": 2573,
      "idx": 2574,
      "plugin": 2575,
      "drop": 2576,
      "cle": 2577,
      "Pos": 2578,
      "part": 2579,
      "Ċĉĉĉĉĉĉĉĉĉĉ": 2580,
      "fn": 2581,
      "layout": 2582,
      "Return": 2583,
      "Width": 2584,
      "Ġprocess": 2585,
      "Ġfound": 2586,
      "column": 2587,
      "Ġco": 2588,
      "}}": 2589,
      "åı": 2590,
      "Ġed": 2591,
      "ntity": 2592,
      "Icon": 2593,
      "Menu": 2594,
      "Ġ<!--": 2595,
      "Ġcallback": 2596,
      "see": 2597,
      "ĠVAL": 2598,
      "Ġ?>": 2599,
      "Ġ!==": 2600,
      "Ġsol": 2601,
      "process": 2602,
      "čĊčĊĠĠĠ": 2603,
      "man": 2604,
      "----------------------------------------------------------------": 2605,
      "acket": 2606,
      "SO": 2607,
      "enum": 2608,
      "Ġinformation": 2609,
      "################": 2610,
      "Target": 2611,
      "andom": 2612,
      "Ġbit": 2613,
      "%%": 2614,
      "Ġinline": 2615,
      "<<": 2616,
      "ĠNOT": 2617,
      "Ġlet": 2618,
      "rapper": 2619,
      "Ġhandle": 2620,
      "ĠMe": 2621,
      "ĠTh": 2622,
      "nown": 2623,
      "pell": 2624,
      "Address": 2625,
      "ĊĉĊ": 2626,
      "linux": 2627,
      "Valid": 2628,
      ")))": 2629,
      "oundation": 2630,
      "double": 2631,
      "Ġ++": 2632,
      "DD": 2633,
      "att": 2634,
      "89": 2635,
      "Ġfiles": 2636,
      "ggle": 2637,
      "da": 2638,
      "ince": 2639,
      "Ht": 2640,
      "OS": 2641,
      "ful": 2642,
      "IB": 2643,
      "conf": 2644,
      "ious": 2645,
      "31": 2646,
      "ĠComp": 2647,
      "Ñģ": 2648,
      "ouse": 2649,
      "Output": 2650,
      "session": 2651,
      "ITE": 2652,
      "widget": 2653,
      "Ġlabel": 2654,
      "ient": 2655,
      "PH": 2656,
      "thing": 2657,
      "Ġ(\"": 2658,
      "undle": 2659,
      "apping": 2660,
      "ĠZ": 2661,
      "Ġresource": 2662,
      "Ġexpect": 2663,
      "bind": 2664,
      "ily": 2665,
      "Ġobj": 2666,
      "clear": 2667,
      "Ġcatch": 2668,
      "atrix": 2669,
      "email": 2670,
      "quence": 2671,
      "iler": 2672,
      "čĊĠĠĠĠĠ": 2673,
      "byte": 2674,
      "ORM": 2675,
      "Max": 2676,
      "send": 2677,
      "```": 2678,
      "Url": 2679,
      "Task": 2680,
      "Ġsome": 2681,
      "QL": 2682,
      "Ġview": 2683,
      "OK": 2684,
      "Ġrange": 2685,
      "irq": 2686,
      "dest": 2687,
      "Ġwrit": 2688,
      "ĠCreate": 2689,
      "document": 2690,
      "Interface": 2691,
      "licenses": 2692,
      "Part": 2693,
      "ĠWITHOUT": 2694,
      "Ġaction": 2695,
      "Ġproperty": 2696,
      "Ð¾Ð": 2697,
      "Ptr": 2698,
      "Ġinfo": 2699,
      "Ġwindow": 2700,
      "utils": 2701,
      "FAULT": 2702,
      "arr": 2703,
      "ĠFile": 2704,
      "ATION": 2705,
      "Ġinterface": 2706,
      "DC": 2707,
      "fr": 2708,
      "ORD": 2709,
      "ĠArray": 2710,
      "Ġlimit": 2711,
      "wo": 2712,
      "Ġfilter": 2713,
      "COLOR": 2714,
      "ä»": 2715,
      "ency": 2716,
      "command": 2717,
      "49": 2718,
      "Ġfollowing": 2719,
      "vices": 2720,
      "stract": 2721,
      "ENSE": 2722,
      "mer": 2723,
      "Tree": 2724,
      "entifier": 2725,
      "Position": 2726,
      "API": 2727,
      "ultip": 2728,
      "wait": 2729,
      "ities": 2730,
      "Sp": 2731,
      "Ġlocal": 2732,
      "Ġafter": 2733,
      "stant": 2734,
      "Ġprovide": 2735,
      "Layout": 2736,
      "ĊĠĠĠĠĠĠĠĠĠĠĠĠĠĠĠĠĠĠĠĠĠĠĠĠĠĠĠĠĠĠĠĠĠĠĠĠĠĠĠ": 2737,
      "URL": 2738,
      "ONE": 2739,
      "Server": 2740,
      "URE": 2741,
      "ear": 2742,
      "stylesheet": 2743,
      "This": 2744,
      "./": 2745,
      "panel": 2746,
      "Ġallow": 2747,
      "foot": 2748,
      "Ġbefore": 2749,
      "sets": 2750,
      "79": 2751,
      "Search": 2752,
      "INS": 2753,
      "Collection": 2754,
      "ling": 2755,
      "---": 2756,
      "Spec": 2757,
      "Ġsign": 2758,
      "Ġ12": 2759,
      "fc": 2760,
      "Script": 2761,
      "ription": 2762,
      "Ġframe": 2763,
      "Ġ{}": 2764,
      "'],": 2765,
      "Ġimplied": 2766,
      "Ġ20": 2767,
      "ron": 2768,
      "dec": 2769,
      "Control": 2770,
      "Ġcre": 2771,
      "Pre": 2772,
      "address": 2773,
      "adow": 2774,
      "****************************************************************": 2775,
      "ose": 2776,
      "ĠReturns": 2777,
      "PER": 2778,
      "PIO": 2779,
      "LL": 2780,
      "ĠHT": 2781,
      "tract": 2782,
      "DEV": 2783,
      "Ġtag": 2784,
      "ICE": 2785,
      "Num": 2786,
      "MASK": 2787,
      "ches": 2788,
      "can": 2789,
      "\",\"": 2790,
      "Ġserver": 2791,
      "go": 2792,
      "Ġspecified": 2793,
      "Mod": 2794,
      "Ġorder": 2795,
      "CF": 2796,
      "_.": 2797,
      "Ġ15": 2798,
      ":\"": 2799,
      "NULL": 2800,
      "cy": 2801,
      "lan": 2802,
      "Ġexp": 2803,
      "Types": 2804,
      ")->": 2805,
      "otal": 2806,
      "center": 2807,
      "ĠTO": 2808,
      "45": 2809,
      "exp": 2810,
      "ARE": 2811,
      "Last": 2812,
      "([": 2813,
      "mail": 2814,
      "CHE": 2815,
      "Ġcolumn": 2816,
      "ICENSE": 2817,
      "Ġtask": 2818,
      "xFF": 2819,
      "MODE": 2820,
      "padding": 2821,
      "Container": 2822,
      "EXT": 2823,
      "65": 2824,
      "limit": 2825,
      "Ġquery": 2826,
      "LOG": 2827,
      "Case": 2828,
      "very": 2829,
      "Ġ('": 2830,
      "[$": 2831,
      "DIR": 2832,
      "ĠFOR": 2833,
      "iginal": 2834,
      "Do": 2835,
      "mote": 2836,
      "Ġload": 2837,
      "gl": 2838,
      "Ġsee": 2839,
      "coded": 2840,
      "pm": 2841,
      "ABILITY": 2842,
      "IND": 2843,
      "Vis": 2844,
      "ĠFoundation": 2845,
      "DEBUG": 2846,
      "ĠMA": 2847,
      "Ġ::": 2848,
      "pth": 2849,
      "ĠFor": 2850,
      "gen": 2851,
      "support": 2852,
      "delete": 2853,
      "ecute": 2854,
      "boot": 2855,
      "Header": 2856,
      "Ab": 2857,
      "Unit": 2858,
      "background": 2859,
      "Write": 2860,
      "Ġfail": 2861,
      "Module": 2862,
      "Ġfind": 2863,
      "FILE": 2864,
      "{{": 2865,
      "Ġthere": 2866,
      "Ġflags": 2867,
      "board": 2868,
      "Ġentry": 2869,
      "Level": 2870,
      "Ġform": 2871,
      "Ġspecific": 2872,
      "ailable": 2873,
      "vector": 2874,
      "ceived": 2875,
      "ĠSh": 2876,
      "CONFIG": 2877,
      "unit": 2878,
      "Widget": 2879,
      "extern": 2880,
      "other": 2881,
      "ĠAn": 2882,
      "pg": 2883,
      "Offset": 2884,
      "MENT": 2885,
      "Det": 2886,
      "Ġcache": 2887,
      "AY": 2888,
      "Ġ~": 2889,
      "service": 2890,
      "curity": 2891,
      "files": 2892,
      "ĠWe": 2893,
      "Sto": 2894,
      "only": 2895,
      "Ġ|=": 2896,
      "ique": 2897,
      "ACE": 2898,
      "ulti": 2899,
      "Ġdate": 2900,
      "QU": 2901,
      "channel": 2902,
      "ĠAPI": 2903,
      "hw": 2904,
      "cus": 2905,
      "'))": 2906,
      "Ġnon": 2907,
      "settings": 2908,
      "vol": 2909,
      "Entity": 2910,
      "WR": 2911,
      "69": 2912,
      "Ġref": 2913,
      "ĠĠĠĠĠĠĠĠĠĠĠĠĠĠ": 2914,
      "images": 2915,
      "Ġexpected": 2916,
      "Ġeach": 2917,
      "media": 2918,
      "lap": 2919,
      "Ġits": 2920,
      "classes": 2921,
      "ĠType": 2922,
      "radius": 2923,
      "az": 2924,
      "second": 2925,
      "Controller": 2926,
      "ĠFree": 2927,
      "ove": 2928,
      "=\"/": 2929,
      "68": 2930,
      "čĊĠĠĠĠĠĠĠĠĠĠĠĠĠĠĠĠĠĠĠ": 2931,
      "Height": 2932,
      "Ġra": 2933,
      "long": 2934,
      "*)": 2935,
      "Range": 2936,
      "cent": 2937,
      "ump": 2938,
      "token": 2939,
      "INFO": 2940,
      "Ġchild": 2941,
      "ward": 2942,
      "Ġexcept": 2943,
      "LOCK": 2944,
      "KEY": 2945,
      "ĠST": 2946,
      "Web": 2947,
      "ĠRes": 2948,
      "loud": 2949,
      "Ġrow": 2950,
      "full": 2951,
      "lit": 2952,
      "interface": 2953,
      "Handle": 2954,
      "imum": 2955,
      "Utils": 2956,
      "Ġregister": 2957,
      "replace": 2958,
      "Ø§": 2959,
      "Font": 2960,
      "semb": 2961,
      "bb": 2962,
      "small": 2963,
      "stat": 2964,
      "âĢ": 2965,
      "Ġempty": 2966,
      "Provider": 2967,
      "cap": 2968,
      "Ac": 2969,
      "(!": 2970,
      "Ġap": 2971,
      "Ġcell": 2972,
      "PAR": 2973,
      "Ġ['": 2974,
      "SB": 2975,
      "ivity": 2976,
      "acity": 2977,
      "Ġaccess": 2978,
      "Ġsame": 2979,
      "ole": 2980,
      "Ġpermission": 2981,
      "final": 2982,
      "ization": 2983,
      "project": 2984,
      "ASS": 2985,
      "Ġold": 2986,
      "auth": 2987,
      "insert": 2988,
      "amily": 2989,
      "sql": 2990,
      "expected": 2991,
      "Ġwhere": 2992,
      "DATA": 2993,
      "auto": 2994,
      "ixel": 2995,
      "čĊĉĉĉĉ": 2996,
      "Ġ\"%": 2997,
      "70": 2998,
      "ĠSer": 2999,
      "Ġrg": 3000,
      "values": 3001,
      "sl": 3002,
      "sec": 3003,
      "Min": 3004,
      "Back": 3005,
      "Connection": 3006,
      "ROM": 3007,
      "Ġ32": 3008,
      "ines": 3009,
      "oss": 3010,
      "now": 3011,
      "Empty": 3012,
      "Dis": 3013,
      "margin": 3014,
      "ten": 3015,
      "æľ": 3016,
      "ĊĊĠĠ": 3017,
      "Vector": 3018,
      "irection": 3019,
      "cr": 3020,
      "stamp": 3021,
      "etch": 3022,
      "focus": 3023,
      "Settings": 3024,
      "asic": 3025,
      "ĠAll": 3026,
      "Co": 3027,
      "Net": 3028,
      "cpp": 3029,
      "thread": 3030,
      "Ġbyte": 3031,
      "ian": 3032,
      "sv": 3033,
      "save": 3034,
      "cm": 3035,
      "Ġsuper": 3036,
      "Ġhere": 3037,
      "Dir": 3038,
      "Pan": 3039,
      "umb": 3040,
      "Ġvirtual": 3041,
      "Fe": 3042,
      "Ġlanguage": 3043,
      "important": 3044,
      "IE": 3045,
      "ĠAND": 3046,
      "Ġopt": 3047,
      "Session": 3048,
      "ĊĠĠĠĠĠĠĠĠĠĠĠĠĠĠĠĠĠĠĠĠĠ": 3049,
      "Ġtemplate": 3050,
      "ene": 3051,
      "Ġnow": 3052,
      "Ġroot": 3053,
      "58": 3054,
      "herit": 3055,
      "strap": 3056,
      "component": 3057,
      "vious": 3058,
      "cat": 3059,
      "ĠEn": 3060,
      "Access": 3061,
      "Ġind": 3062,
      "Ġvis": 3063,
      ">>": 3064,
      "åĪ": 3065,
      "render": 3066,
      "ãĢĤ": 3067,
      "MI": 3068,
      "FE": 3069,
      "Ġtmp": 3070,
      "Process": 3071,
      "Params": 3072,
      "uction": 3073,
      "None": 3074,
      "begin": 3075,
      "ĠVersion": 3076,
      "Parameter": 3077,
      "prec": 3078,
      "Ġopen": 3079,
      "Run": 3080,
      "Ġbeen": 3081,
      "Ġlevel": 3082,
      "Next": 3083,
      "rate": 3084,
      "Ġbytes": 3085,
      "SER": 3086,
      "Ġpos": 3087,
      "unlock": 3088,
      "clk": 3089,
      "ĠCheck": 3090,
      "orld": 3091,
      "ination": 3092,
      "switch": 3093,
      "wn": 3094,
      "lg": 3095,
      "disabled": 3096,
      "Current": 3097,
      "Que": 3098,
      "hs": 3099,
      "imation": 3100,
      "itional": 3101,
      "ĊĠĠĠĠĠĠĠĠĠĠĠĠĠĠĠĠĠĠĠĠ": 3102,
      "pa": 3103,
      "range": 3104,
      "ier": 3105,
      "cfg": 3106,
      "Hash": 3107,
      "click": 3108,
      "Callback": 3109,
      "Ġparameter": 3110,
      "NavBar": 3111,
      "Ġvariable": 3112,
      "PT": 3113,
      "Ġreturns": 3114,
      "rx": 3115,
      "AV": 3116,
      "Ġstream": 3117,
      "roy": 3118,
      "ces": 3119,
      "Ġterms": 3120,
      "Ġparams": 3121,
      "Ġshow": 3122,
      "ĠData": 3123,
      "First": 3124,
      "aj": 3125,
      "sys": 3126,
      "Device": 3127,
      "=\"../../../../../": 3128,
      "Ġheader": 3129,
      "alt": 3130,
      "Top": 3131,
      "used": 3132,
      "Ġfe": 3133,
      "FR": 3134,
      "aded": 3135,
      "coding": 3136,
      "Ġsend": 3137,
      "Ġswitch": 3138,
      "pename": 3139,
      "inline": 3140,
      "mutex": 3141,
      "pol": 3142,
      "Open": 3143,
      "oci": 3144,
      "ĠCol": 3145,
      "Ġbuild": 3146,
      "CA": 3147,
      "=\"-": 3148,
      "FS": 3149,
      "ĠBG": 3150,
      "Ġsearch": 3151,
      "join": 3152,
      "XT": 3153,
      "(\"%": 3154,
      "Ġdetails": 3155,
      "fields": 3156,
      "Document": 3157,
      "INVAL": 3158,
      "sert": 3159,
      "46": 3160,
      "transform": 3161,
      "Ġinternal": 3162,
      "global": 3163,
      "Ċĉĉĉĉĉĉĉĉ": 3164,
      "Ġtemp": 3165,
      "scale": 3166,
      "READ": 3167,
      "comment": 3168,
      "TIES": 3169,
      "Option": 3170,
      "Ġremove": 3171,
      "acter": 3172,
      "scope": 3173,
      "sb": 3174,
      "ALSE": 3175,
      "Ġ'/": 3176,
      "Ġfailed": 3177,
      "ring": 3178,
      "DL": 3179,
      "SION": 3180,
      "AA": 3181,
      "Ġthan": 3182,
      "Ġpri": 3183,
      "book": 3184,
      "pk": 3185,
      "90": 3186,
      "äº": 3187,
      "Thread": 3188,
      "posit": 3189,
      "à¸": 3190,
      "Ġmsg": 3191,
      "types": 3192,
      "should": 3193,
      "OST": 3194,
      "Tool": 3195,
      "ging": 3196,
      "xf": 3197,
      "802": 3198,
      "`,": 3199,
      "toggle": 3200,
      "admin": 3201,
      "mount": 3202,
      "sort": 3203,
      "aml": 3204,
      "Ġstore": 3205,
      "TEST": 3206,
      "Ġoverride": 3207,
      "Load": 3208,
      "ĠPar": 3209,
      "Record": 3210,
      "Core": 3211,
      ".\"": 3212,
      "lice": 3213,
      "igation": 3214,
      "UD": 3215,
      "ĠBu": 3216,
      "Ġmodify": 3217,
      "allet": 3218,
      "Call": 3219,
      "ITION": 3220,
      "Ġhost": 3221,
      "OD": 3222,
      "afe": 3223,
      "met": 3224,
      "57": 3225,
      "UID": 3226,
      "Ġsystem": 3227,
      "čĊčĊĠĠĠĠĠĠĠ": 3228,
      "mov": 3229,
      "ĠÃ": 3230,
      "boolean": 3231,
      "ĠAs": 3232,
      "peed": 3233,
      "->_": 3234,
      "Location": 3235,
      "43": 3236,
      "98": 3237,
      "ĠAR": 3238,
      "iron": 3239,
      "Ġparse": 3240,
      "enable": 3241,
      "Configuration": 3242,
      "Ġbuf": 3243,
      "${": 3244,
      "su": 3245,
      "erson": 3246,
      "ped": 3247,
      "ublished": 3248,
      "lyph": 3249,
      "ATH": 3250,
      "access": 3251,
      "weight": 3252,
      "member": 3253,
      "42": 3254,
      "skb": 3255,
      "Ġsession": 3256,
      "Ġhash": 3257,
      "BIT": 3258,
      "Ġdelete": 3259,
      "Iter": 3260,
      "aster": 3261,
      "Ġconn": 3262,
      "pop": 3263,
      "footer": 3264,
      "Ð°Ð": 3265,
      "Ġsolid": 3266,
      "ely": 3267,
      "ACT": 3268,
      "GR": 3269,
      "Ġcorre": 3270,
      "VENT": 3271,
      "OM": 3272,
      "pha": 3273,
      "ĠAp": 3274,
      "velo": 3275,
      "connect": 3276,
      "WN": 3277,
      "USE": 3278,
      "stack": 3279,
      "make": 3280,
      "():": 3281,
      "anch": 3282,
      "67": 3283,
      "inary": 3284,
      "ignore": 3285,
      "ĠWARRANTIES": 3286,
      "UES": 3287,
      "Template": 3288,
      "rupt": 3289,
      "edit": 3290,
      "ndef": 3291,
      "stop": 3292,
      "ĠLO": 3293,
      "ason": 3294,
      "echo": 3295,
      "Ġalready": 3296,
      "MOD": 3297,
      "system": 3298,
      "TIME": 3299,
      "SU": 3300,
      "Ġdest": 3301,
      "items": 3302,
      "3333": 3303,
      "ERN": 3304,
      "Render": 3305,
      "custom": 3306,
      "Ġcalled": 3307,
      "ipe": 3308,
      "straint": 3309,
      "Bundle": 3310,
      "áĢ": 3311,
      "ĠClass": 3312,
      "Store": 3313,
      "ĊĠĠĠĠĠĠĠĠĠĠĠĠĠĠĠĠĠĠ": 3314,
      "~~": 3315,
      "Ġcontain": 3316,
      "sn": 3317,
      "Param": 3318,
      "brary": 3319,
      "example": 3320,
      "////////////////////////////////": 3321,
      "bus": 3322,
      "INSERT": 3323,
      "Op": 3324,
      "Ġqu": 3325,
      "ĊĊĉĉĉ": 3326,
      "arm": 3327,
      "tn": 3328,
      "!<": 3329,
      "aph": 3330,
      "ĠCom": 3331,
      "thon": 3332,
      "ĠAl": 3333,
      "ted": 3334,
      "returns": 3335,
      "ifndef": 3336,
      "foo": 3337,
      "ernel": 3338,
      "wise": 3339,
      "Ġ\"/": 3340,
      "ĠBGCOLOR": 3341,
      "reset": 3342,
      "actor": 3343,
      "255": 3344,
      "typedef": 3345,
      "OB": 3346,
      "bytes": 3347,
      "callback": 3348,
      "ĠLe": 3349,
      "ĠAL": 3350,
      "Ġproject": 3351,
      "Helper": 3352,
      "Left": 3353,
      "Port": 3354,
      "____": 3355,
      "Http": 3356,
      ";<": 3357,
      "cla": 3358,
      "Ġavailable": 3359,
      "Ġpost": 3360,
      "Ġnamespace": 3361,
      "Ġ255": 3362,
      "ialized": 3363,
      "Ġren": 3364,
      "Order": 3365,
      "Ġreference": 3366,
      "Ġeven": 3367,
      "Ġgo": 3368,
      "LEN": 3369,
      "Ġph": 3370,
      "''": 3371,
      "Local": 3372,
      "Ġos": 3373,
      "Dialog": 3374,
      "tk": 3375,
      "struction": 3376,
      "ynam": 3377,
      "çĶ": 3378,
      "icro": 3379,
      "tocol": 3380,
      "Ġcl": 3381,
      "Ġrgba": 3382,
      "inner": 3383,
      "SL": 3384,
      "cul": 3385,
      "ĠName": 3386,
      "ĠPy": 3387,
      "Ġconnection": 3388,
      "###": 3389,
      "_;": 3390,
      "ĠOn": 3391,
      "MEM": 3392,
      "cmp": 3393,
      "domain": 3394,
      "ĠException": 3395,
      "STATUS": 3396,
      "Ph": 3397,
      "Ġsuccess": 3398,
      "place": 3399,
      "Ġgr": 3400,
      "ĠTR": 3401,
      "Ġservice": 3402,
      "dropdown": 3403,
      "Ġcondition": 3404,
      "uk": 3405,
      "ĠIO": 3406,
      "=\"../../../../../../": 3407,
      "ĠTrue": 3408,
      "å®": 3409,
      "ĠINTO": 3410,
      "toString": 3411,
      "....": 3412,
      "ĠCONFIG": 3413,
      "Reference": 3414,
      "pository": 3415,
      "Ġnav": 3416,
      "IGHT": 3417,
      "_,": 3418,
      "gment": 3419,
      "=\"_": 3420,
      "(__": 3421,
      "ĊĉĉĊĉ": 3422,
      "equals": 3423,
      "Ġparameters": 3424,
      "cell": 3425,
      "rq": 3426,
      "Ġ\",": 3427,
      "oost": 3428,
      "theme": 3429,
      "txt": 3430,
      "ĠLog": 3431,
      ")/": 3432,
      "oom": 3433,
      "Ġcomponent": 3434,
      "BE": 3435,
      "xa": 3436,
      "CS": 3437,
      "ctrl": 3438,
      "NS": 3439,
      "Ġrender": 3440,
      "sing": 3441,
      "72": 3442,
      "gp": 3443,
      "åħ": 3444,
      "ĊĠĠĠĠĠĠĠĠĊĠĠĠĠĠĠĠ": 3445,
      "split": 3446,
      "ĠApache": 3447,
      "Stack": 3448,
      "iction": 3449,
      "leted": 3450,
      "ĠIt": 3451,
      "grid": 3452,
      "shadow": 3453,
      "Description": 3454,
      "Ġlicense": 3455,
      "Byte": 3456,
      "Ġiter": 3457,
      "ctl": 3458,
      "ĠAssert": 3459,
      "ĠApp": 3460,
      "ynt": 3461,
      "distr": 3462,
      "ĠReg": 3463,
      "ween": 3464,
      "Ġdev": 3465,
      "ade": 3466,
      "xc": 3467,
      ".'": 3468,
      "site": 3469,
      "Ġpass": 3470,
      "Ġalso": 3471,
      "area": 3472,
      "CD": 3473,
      "fb": 3474,
      "verse": 3475,
      "HER": 3476,
      "Ġbet": 3477,
      "ds": 3478,
      "atures": 3479,
      "xE": 3480,
      "Ġdefine": 3481,
      "Ġexist": 3482,
      "REQ": 3483,
      "gest": 3484,
      "Properties": 3485,
      "Draw": 3486,
      "Ġattribute": 3487,
      "Match": 3488,
      "ugh": 3489,
      "Rect": 3490,
      "sembly": 3491,
      "modal": 3492,
      "\"},": 3493,
      "ution": 3494,
      "ancel": 3495,
      "after": 3496,
      "Ġwant": 3497,
      "Parameters": 3498,
      "NOT": 3499,
      "Ġcontinue": 3500,
      "NESS": 3501,
      "flag": 3502,
      "RT": 3503,
      "SM": 3504,
      "Parser": 3505,
      "bits": 3506,
      "iod": 3507,
      "(-": 3508,
      "success": 3509,
      "ado": 3510,
      "btain": 3511,
      "ULAR": 3512,
      "uc": 3513,
      "angle": 3514,
      "ĠDo": 3515,
      "ibility": 3516,
      "YPE": 3517,
      "Impl": 3518,
      "Integer": 3519,
      "Ġem": 3520,
      "xff": 3521,
      "help": 3522,
      "(:": 3523,
      "Ġthread": 3524,
      "Ġty": 3525,
      "Ġjav": 3526,
      "gra": 3527,
      "POSE": 3528,
      "Ġ'<": 3529,
      ".*": 3530,
      "coun": 3531,
      "internal": 3532,
      "iteral": 3533,
      "andard": 3534,
      "If": 3535,
      "Ġpointer": 3536,
      "Ġdon": 3537,
      "mg": 3538,
      "ĠInc": 3539,
      "Ġver": 3540,
      "Title": 3541,
      "ĠPART": 3542,
      "************************************************************************": 3543,
      "hd": 3544,
      "åĲ": 3545,
      "ings": 3546,
      "Ġrc": 3547,
      "ĠVALUES": 3548,
      "imal": 3549,
      "Ġreceived": 3550,
      "handler": 3551,
      "soft": 3552,
      "Enum": 3553,
      "Ġalt": 3554,
      "tip": 3555,
      "distribut": 3556,
      "Sk": 3557,
      "CESS": 3558,
      "TX": 3559,
      "ä½": 3560,
      "none": 3561,
      "False": 3562,
      "Ġtree": 3563,
      "attribute": 3564,
      "Ġtoken": 3565,
      "160": 3566,
      "NT": 3567,
      ">.": 3568,
      "DIS": 3569,
      "ĠDef": 3570,
      "CHANT": 3571,
      "filename": 3572,
      "driver": 3573,
      "Ġobtain": 3574,
      "47": 3575,
      "graph": 3576,
      "Ġfields": 3577,
      "Ġmain": 3578,
      "URPOSE": 3579,
      "ĊĉĉĠĠĠ": 3580,
      "Invalid": 3581,
      "Channel": 3582,
      "solute": 3583,
      "Ġmemory": 3584,
      "aders": 3585,
      "step": 3586,
      "dat": 3587,
      "Ġjust": 3588,
      "xF": 3589,
      "ĠUp": 3590,
      "ensions": 3591,
      "Obj": 3592,
      "Work": 3593,
      "Ġchannel": 3594,
      "ĊĉĠĠĠĠĠ": 3595,
      "ITNESS": 3596,
      "MT": 3597,
      ")),": 3598,
      "Ġsecond": 3599,
      "coder": 3600,
      "ĠPRO": 3601,
      "Ag": 3602,
      "Over": 3603,
      "Click": 3604,
      "ideo": 3605,
      "ADD": 3606,
      "ERCHANT": 3607,
      "TABLE": 3608,
      "Down": 3609,
      "rough": 3610,
      "FUN": 3611,
      "ARY": 3612,
      "bootstrap": 3613,
      "stats": 3614,
      "utf": 3615,
      "80211": 3616,
      "vas": 3617,
      "edia": 3618,
      "ĠPURPOSE": 3619,
      "ERCHANTABILITY": 3620,
      "{\"": 3621,
      "rief": 3622,
      "Ġ],": 3623,
      "Constant": 3624,
      "ICULAR": 3625,
      "Ġlater": 3626,
      "85": 3627,
      "iag": 3628,
      "Rule": 3629,
      "mac": 3630,
      "Tab": 3631,
      "day": 3632,
      "ias": 3633,
      "Ġenv": 3634,
      "ĠDate": 3635,
      "Ġcontrol": 3636,
      "total": 3637,
      "Host": 3638,
      "ĠPARTICULAR": 3639,
      "each": 3640,
      "wp": 3641,
      "fl": 3642,
      "Ġarguments": 3643,
      "95": 3644,
      "Ġ'\\": 3645,
      "xb": 3646,
      "uple": 3647,
      "Ġ50": 3648,
      "product": 3649,
      "Ġdone": 3650,
      "oth": 3651,
      "ential": 3652,
      "Ġdirectory": 3653,
      "Float": 3654,
      "Ġent": 3655,
      "ĊĠĠĠĠĠĠĠĠĠĠĠĠĠĠĠĠĠĠĠĠĠĠĠĠĠĠĠĠĠĠĠĠĠĠĠĠĠĠĠĠĠĠĠ": 3656,
      "spin": 3657,
      "lative": 3658,
      "igin": 3659,
      "ECT": 3660,
      "Cre": 3661,
      "ĠFITNESS": 3662,
      "}\\": 3663,
      "è¿": 3664,
      "ynamic": 3665,
      "Ġ...": 3666,
      "Ġreser": 3667,
      "ĠNO": 3668,
      "Player": 3669,
      "oriz": 3670,
      "hether": 3671,
      "=\"../../../": 3672,
      "entic": 3673,
      "bed": 3674,
      "Edit": 3675,
      "Enabled": 3676,
      "96": 3677,
      "Ġman": 3678,
      "\".": 3679,
      "ĠĠĠĠĠĠĠĠĠĠĠĠĠĠĠĠĠĠĠ": 3680,
      "Ã¡": 3681,
      "seq": 3682,
      "record": 3683,
      "PECT": 3684,
      "cause": 3685,
      "TRY": 3686,
      "dated": 3687,
      "ln": 3688,
      "Ġfull": 3689,
      ")));": 3690,
      "region": 3691,
      "skip": 3692,
      "ragment": 3693,
      "æĸ": 3694,
      "ĠTo": 3695,
      "xe": 3696,
      "Ġrecord": 3697,
      "ony": 3698,
      "PUT": 3699,
      "Ġinstall": 3700,
      "ultiple": 3701,
      "256": 3702,
      "PS": 3703,
      "'])": 3704,
      "License": 3705,
      "arn": 3706,
      "0000000": 3707,
      "Ġdb": 3708,
      "istory": 3709,
      "84": 3710,
      "(){": 3711,
      "ĊĊĊ": 3712,
      "STATE": 3713,
      "keys": 3714,
      "family": 3715,
      "ision": 3716,
      "ĠValue": 3717,
      "BASE": 3718,
      "brief": 3719,
      "BR": 3720,
      "Use": 3721,
      "kind": 3722,
      "IDE": 3723,
      "Ġhtml": 3724,
      "Display": 3725,
      "ĠMERCHANTABILITY": 3726,
      "LOC": 3727,
      "del": 3728,
      "Sign": 3729,
      "Parent": 3730,
      "cv": 3731,
      "Cal": 3732,
      "bers": 3733,
      "Ġglobal": 3734,
      "Graph": 3735,
      "Ġexample": 3736,
      "iterator": 3737,
      "UM": 3738,
      "ĊĠĠĠĠĠĠĠĠĠĠĠĠĠĠĠĠĠĠĠĠĠĠĠĠĠĠĠĠĠĠĠĠĠĠĠĠĠĠĠĠĠĠĠĠĠĠĠĠĠĠĠĠĠĠĠĠ": 3739,
      "TA": 3740,
      "trib": 3741,
      "era": 3742,
      "Wh": 3743,
      "Ġgl": 3744,
      "inode": 3745,
      "Expression": 3746,
      ">();": 3747,
      "ĠError": 3748,
      "=%": 3749,
      "Right": 3750,
      "ironment": 3751,
      "luster": 3752,
      "lash": 3753,
      "engine": 3754,
      "THER": 3755,
      "Names": 3756,
      "Ġ11": 3757,
      "HTML": 3758,
      "Ġprovided": 3759,
      "82": 3760,
      "Ġbutton": 3761,
      "dict": 3762,
      "atom": 3763,
      ",-": 3764,
      "ii": 3765,
      ")]": 3766,
      "TW": 3767,
      "Ġmark": 3768,
      "ead": 3769,
      "Auth": 3770,
      "Ġconfiguration": 3771,
      "licit": 3772,
      "Ġuseful": 3773,
      "report": 3774,
      "Ġenum": 3775,
      "hr": 3776,
      "LECT": 3777,
      "Ġagre": 3778,
      "finition": 3779,
      "ws": 3780,
      "Bytes": 3781,
      "Exp": 3782,
      "prefix": 3783,
      "high": 3784,
      "lide": 3785,
      "Values": 3786,
      "irm": 3787,
      "Rout": 3788,
      "draw": 3789,
      "Ġ/*!<": 3790,
      "hidden": 3791,
      "ĊĊĠĠĠĠĠĠĠĠĠĠĠĠĠĠĠĠĠĠĠ": 3792,
      "category": 3793,
      "ĠInit": 3794,
      "Ġtransp": 3795,
      "LICENSE": 3796,
      "LINE": 3797,
      "ries": 3798,
      "Reader": 3799,
      "Ġ14": 3800,
      "je": 3801,
      "ways": 3802,
      "Ġlock": 3803,
      "codec": 3804,
      "known": 3805,
      "Ġundefined": 3806,
      "SCR": 3807,
      "med": 3808,
      "\">&": 3809,
      "dst": 3810,
      "Ġresults": 3811,
      "uri": 3812,
      "home": 3813,
      "Ġscope": 3814,
      "Ġbox": 3815,
      "-->": 3816,
      "COMP": 3817,
      "ority": 3818,
      "52": 3819,
      "moz": 3820,
      "?:": 3821,
      "fp": 3822,
      "Ġbody": 3823,
      "Ġcpu": 3824,
      "Ġapplic": 3825,
      "istry": 3826,
      "sect": 3827,
      "istance": 3828,
      "VERSION": 3829,
      "Debug": 3830,
      "icons": 3831,
      "IX": 3832,
      "Ġexpress": 3833,
      "DATE": 3834,
      "PP": 3835,
      "uff": 3836,
      "hel": 3837,
      "olve": 3838,
      "Json": 3839,
      "Ġcmd": 3840,
      "Ġsm": 3841,
      "Args": 3842,
      "87": 3843,
      "Ġrights": 3844,
      "exports": 3845,
      "prev": 3846,
      "ending": 3847,
      "short": 3848,
      "Ð»": 3849,
      "Project": 3850,
      "Ñĥ": 3851,
      "precated": 3852,
      "Ġ})": 3853,
      "ids": 3854,
      "ĠFalse": 3855,
      "impl": 3856,
      "Ġexception": 3857,
      "serv": 3858,
      "ĠNew": 3859,
      "password": 3860,
      "Ġmat": 3861,
      "Mon": 3862,
      "------------": 3863,
      "iant": 3864,
      "olume": 3865,
      "__(": 3866,
      "np": 3867,
      "FFFF": 3868,
      "exit": 3869,
      "Ġclear": 3870,
      "OFF": 3871,
      "selected": 3872,
      "LAN": 3873,
      "53": 3874,
      "Package": 3875,
      "Ġ%}": 3876,
      "achine": 3877,
      "player": 3878,
      "bove": 3879,
      "ayload": 3880,
      "\"\"\"": 3881,
      "ram": 3882,
      "adient": 3883,
      "Ġsettings": 3884,
      "ah": 3885,
      "rad": 3886,
      "EQ": 3887,
      "ilt": 3888,
      "Ġpermissions": 3889,
      "ĠĊĠĠĠ": 3890,
      "sync": 3891,
      "Ġcustom": 3892,
      "ounter": 3893,
      "ged": 3894,
      "Ġelements": 3895,
      "Ġgover": 3896,
      "dc": 3897,
      "Ġnormal": 3898,
      "hedule": 3899,
      "Track": 3900,
      "lack": 3901,
      "RX": 3902,
      "Ġpackage": 3903,
      "\"],": 3904,
      "Ġjson": 3905,
      "Ġtransaction": 3906,
      "ĠMath": 3907,
      "Bit": 3908,
      "ĠNo": 3909,
      "PU": 3910,
      "Py": 3911,
      "'];": 3912,
      "Ġwriting": 3913,
      "Cur": 3914,
      "Msg": 3915,
      "Ġvalign": 3916,
      "Ġdif": 3917,
      "ĠWARRANTY": 3918,
      "Ġfore": 3919,
      "HERE": 3920,
      "rule": 3921,
      "IST": 3922,
      "Changed": 3923,
      "orizont": 3924,
      "Ġcontainer": 3925,
      "connection": 3926,
      "Delete": 3927,
      "Ġpublished": 3928,
      "ĠHTML": 3929,
      "fail": 3930,
      "Ġrepresent": 3931,
      "DF": 3932,
      "CHECK": 3933,
      "ĠMap": 3934,
      "atal": 3935,
      "Body": 3936,
      "PM": 3937,
      "Storage": 3938,
      "Are": 3939,
      "crypt": 3940,
      "Ġtypes": 3941,
      "97": 3942,
      "EM": 3943,
      "while": 3944,
      "ULE": 3945,
      "fix": 3946,
      "ĠKIND": 3947,
      "CMD": 3948,
      "ailed": 3949,
      "Detail": 3950,
      "rm": 3951,
      "__,": 3952,
      "ocket": 3953,
      "TEXT": 3954,
      "Ġlocation": 3955,
      "LAY": 3956,
      "just": 3957,
      "Ġreserved": 3958,
      "xs": 3959,
      "Ġbecause": 3960,
      "CB": 3961,
      "Encoded": 3962,
      "Ġabove": 3963,
      "======": 3964,
      "čĊĉĉĉĉĉ": 3965,
      "MIN": 3966,
      "docs": 3967,
      "sample": 3968,
      "ev": 3969,
      "Panel": 3970,
      "Send": 3971,
      "scribe": 3972,
      "41": 3973,
      "Flags": 3974,
      "Plugin": 3975,
      "endar": 3976,
      "yntax": 3977,
      "Operation": 3978,
      "æĺ": 3979,
      "dp": 3980,
      "Ġreturned": 3981,
      "Assert": 3982,
      "install": 3983,
      "Ġhttps": 3984,
      "Print": 3985,
      "inition": 3986,
      "term": 3987,
      "framework": 3988,
      "zone": 3989,
      "'.": 3990,
      "ĠTH": 3991,
      "Ġdirect": 3992,
      "ced": 3993,
      "IZE": 3994,
      "Ġtwo": 3995,
      "white": 3996,
      "Ġss": 3997,
      "orizontal": 3998,
      "tw": 3999,
      "Ġet": 4000,
      "ENABLE": 4001,
      "Ġthem": 4002,
      "ĠNot": 4003,
      "modules": 4004,
      "icker": 4005,
      "Ġreq": 4006,
      "Ġcenter": 4007,
      "Meta": 4008,
      "Ġdiv": 4009,
      "Ġdir": 4010,
      "exception": 4011,
      "liance": 4012,
      "ounds": 4013,
      "FORM": 4014,
      "Queue": 4015,
      "ĠTrans": 4016,
      "yy": 4017,
      "Ġmet": 4018,
      "čĊĠĠ": 4019,
      "Ġ(_": 4020,
      "Ġoperation": 4021,
      "article": 4022,
      "Symbol": 4023,
      "loy": 4024,
      "Show": 4025,
      ";}": 4026,
      "CLK": 4027,
      "timer": 4028,
      "`.": 4029,
      "shot": 4030,
      "cip": 4031,
      "ersist": 4032,
      "peat": 4033,
      "ĊĠĠĠĠĠĠĠĠĠĠĠĠĠĠĠĠĠĠĠĠĠĠĠĠĠ": 4034,
      "Pri": 4035,
      "vision": 4036,
      "bs": 4037,
      "cpy": 4038,
      ",'": 4039,
      "Ġjavax": 4040,
      "ended": 4041,
      "ummary": 4042,
      "128": 4043,
      "Classes": 4044,
      "1000": 4045,
      "Ġalloc": 4046,
      "SQL": 4047,
      "Ġhandler": 4048,
      "IV": 4049,
      "å¤": 4050,
      "ĠWh": 4051,
      "mc": 4052,
      "Ġdown": 4053,
      "Root": 4054,
      "Ġwait": 4055,
      "non": 4056,
      "primary": 4057,
      "lower": 4058,
      "xis": 4059,
      "ĠIP": 4060,
      "keyword": 4061,
      "Ġ24": 4062,
      "CTL": 4063,
      "Writer": 4064,
      "Ġshort": 4065,
      "Lock": 4066,
      "WE": 4067,
      "bd": 4068,
      "Ġ[\"": 4069,
      "Ġ\"\"": 4070,
      "ators": 4071,
      "ous": 4072,
      "Long": 4073,
      "freq": 4074,
      "IPT": 4075,
      "REE": 4076,
      "æķ": 4077,
      "play": 4078,
      "Ġandroid": 4079,
      "ĠEXPECT": 4080,
      "rem": 4081,
      "Ċĉĉĉĉĉĉĉĉĉ": 4082,
      "ĊĠĠĠĠĠĠĠĠĠĠĠĠĊĠĠĠĠĠĠĠĠĠĠĠĠĠĠĠ": 4083,
      "done": 4084,
      "Ġ18": 4085,
      "IVE": 4086,
      "Has": 4087,
      "Grid": 4088,
      "{}": 4089,
      "blockList": 4090,
      "ertex": 4091,
      "Ġca": 4092,
      "sr": 4093,
      "hide": 4094,
      "timeout": 4095,
      "è¯": 4096,
      "Definition": 4097,
      "ĠOpen": 4098,
      "MAP": 4099,
      "MSG": 4100,
      "Descript": 4101,
      "screen": 4102,
      "_(": 4103,
      "valu": 4104,
      "Xml": 4105,
      "coq": 4106,
      "Ġdescription": 4107,
      "prop": 4108,
      "Conn": 4109,
      "mar": 4110,
      "Ġthey": 4111,
      "fg": 4112,
      "Ġspace": 4113,
      "Ġfin": 4114,
      "dialog": 4115,
      "Ġctx": 4116,
      "Argument": 4117,
      "distribute": 4118,
      "ĠUser": 4119,
      "gex": 4120,
      "73": 4121,
      "buff": 4122,
      "hdr": 4123,
      "Ġword": 4124,
      "leep": 4125,
      "Ġtotal": 4126,
      "release": 4127,
      "ents": 4128,
      "Us": 4129,
      "ispatch": 4130,
      "ope": 4131,
      "Ġlook": 4132,
      "Ġdoc": 4133,
      "Matrix": 4134,
      "51": 4135,
      "Ġqueue": 4136,
      "writ": 4137,
      "Ġcreated": 4138,
      "events": 4139,
      "dim": 4140,
      "PATH": 4141,
      "Ã£": 4142,
      "Ġinteger": 4143,
      "track": 4144,
      "Kind": 4145,
      "Items": 4146,
      "DITION": 4147,
      "Application": 4148,
      "alk": 4149,
      "Ġexit": 4150,
      "ATTR": 4151,
      "izer": 4152,
      "holder": 4153,
      "pipe": 4154,
      "Variable": 4155,
      "Ġlike": 4156,
      "ĠUse": 4157,
      "Ġscript": 4158,
      "Ġdatabase": 4159,
      "Ġstack": 4160,
      "Ġpacket": 4161,
      "amera": 4162,
      "arge": 4163,
      "Ġ30": 4164,
      "ometry": 4165,
      "Ġ{'": 4166,
      "OPT": 4167,
      "IFT": 4168,
      "Ge": 4169,
      "POST": 4170,
      "Ġrule": 4171,
      "CTRL": 4172,
      "RES": 4173,
      "acing": 4174,
      "abs": 4175,
      "83": 4176,
      "Ġplace": 4177,
      "Active": 4178,
      "names": 4179,
      "application": 4180,
      "ĠLicensed": 4181,
      "Ġpas": 4182,
      "=\"\">": 4183,
      "Ġnames": 4184,
      "hav": 4185,
      "android": 4186,
      "Ġlibrary": 4187,
      "DEF": 4188,
      "']['": 4189,
      "ializer": 4190,
      "win": 4191,
      "Ġabout": 4192,
      "utom": 4193,
      "Metadata": 4194,
      "Ġpe": 4195,
      "ById": 4196,
      ")*": 4197,
      "Ġ{\"": 4198,
      "Custom": 4199,
      "xd": 4200,
      "Ġng": 4201,
      "Boolean": 4202,
      "ĠIs": 4203,
      "xB": 4204,
      "ARG": 4205,
      "Ġflag": 4206,
      "Ġexecut": 4207,
      "Ġio": 4208,
      "Doc": 4209,
      "Bind": 4210,
      "Man": 4211,
      "warning": 4212,
      "TL": 4213,
      "[:": 4214,
      "Windows": 4215,
      "ĠĠĠĠĠĠĠĠĠĠĠĠĠĠĠĠĠ": 4216,
      "MAGE": 4217,
      "Ġargument": 4218,
      "63": 4219,
      "ĠSH": 4220,
      "Async": 4221,
      "94": 4222,
      "Ġtx": 4223,
      "Schema": 4224,
      "Ġscale": 4225,
      "Ġinstanceof": 4226,
      "Ġattr": 4227,
      "Ġredistribute": 4228,
      ".__": 4229,
      "lapse": 4230,
      "gor": 4231,
      "FLAGS": 4232,
      "ĊĊĠĠĠĠ": 4233,
      "pool": 4234,
      "shape": 4235,
      "ĠFALSE": 4236,
      "LOW": 4237,
      "ĠURL": 4238,
      "clar": 4239,
      "glyph": 4240,
      "()));": 4241,
      "æĪ": 4242,
      "ELD": 4243,
      "protected": 4244,
      "jo": 4245,
      "CM": 4246,
      "vec": 4247,
      "ĠJSON": 4248,
      "Ġì": 4249,
      "Ġplugin": 4250,
      "TED": 4251,
      "Ġapplicable": 4252,
      "upp": 4253,
      "vb": 4254,
      "Ġcopyright": 4255,
      "Ġexport": 4256,
      "ĠInt": 4257,
      "packet": 4258,
      "scroll": 4259,
      "Ġloc": 4260,
      "Ġxml": 4261,
      "Ġ'',": 4262,
      "uter": 4263,
      "Ġelem": 4264,
      "allow": 4265,
      "Ġitems": 4266,
      "ĠInter": 4267,
      "clean": 4268,
      "Ġfn": 4269,
      "Mock": 4270,
      "ories": 4271,
      "arrant": 4272,
      "Ġfunctions": 4273,
      "direct": 4274,
      "čĊčĊĉ": 4275,
      "čĊĠĠĠĠĠĠĠĠĠĠĠĠĠĠĠĠĠĠĠĠĠĠĠ": 4276,
      "Api": 4277,
      "job": 4278,
      "ILE": 4279,
      "wrap": 4280,
      "bg": 4281,
      "aly": 4282,
      "cor": 4283,
      "Ver": 4284,
      "TC": 4285,
      "VM": 4286,
      "Ġfunc": 4287,
      "JSON": 4288,
      "sizeof": 4289,
      "Ġthrough": 4290,
      "fff": 4291,
      "ĠEvent": 4292,
      "models": 4293,
      "92": 4294,
      "ĠConfig": 4295,
      "tl": 4296,
      "ĠCO": 4297,
      "OBJ": 4298,
      "ordin": 4299,
      "BY": 4300,
      "Mark": 4301,
      ">::": 4302,
      "apture": 4303,
      "ĠTODO": 4304,
      "ĠassertEquals": 4305,
      "Ġwarrant": 4306,
      "UX": 4307,
      "ENTRY": 4308,
      "Layer": 4309,
      "dma": 4310,
      "Ġ\"<": 4311,
      "Ġactive": 4312,
      "Ġsingle": 4313,
      "fx": 4314,
      "Ġalong": 4315,
      "adapter": 4316,
      "CRE": 4317,
      "Ġ.=": 4318,
      "Ã¤": 4319,
      "jquery": 4320,
      "SELECT": 4321,
      "Ðº": 4322,
      "Ġul": 4323,
      "62": 4324,
      "Copy": 4325,
      "Ġdebug": 4326,
      "Ġapplication": 4327,
      "apped": 4328,
      "eq": 4329,
      "rb": 4330,
      "Ġip": 4331,
      "uture": 4332,
      "Ġ13": 4333,
      "ĠUSB": 4334,
      "Ġbtn": 4335,
      "Ġselected": 4336,
      "chron": 4337,
      "6666": 4338,
      "WAR": 4339,
      "ibr": 4340,
      "scal": 4341,
      "DEFAULT": 4342,
      "Ġenable": 4343,
      "]]": 4344,
      "Ġsort": 4345,
      "account": 4346,
      "GB": 4347,
      "Timeout": 4348,
      "çĶ¨": 4349,
      "Ġvector": 4350,
      "Ġcompliance": 4351,
      "pag": 4352,
      "91": 4353,
      "car": 4354,
      "cnt": 4355,
      "61": 4356,
      "trigger": 4357,
      "plit": 4358,
      "platform": 4359,
      "Ġassoci": 4360,
      "ĊĠĠĊĠ": 4361,
      "assets": 4362,
      "au": 4363,
      "Adapter": 4364,
      "ĠTime": 4365,
      "ĠFunction": 4366,
      "Transaction": 4367,
      "ĠCONDITION": 4368,
      "ĠDefault": 4369,
      "moved": 4370,
      "erm": 4371,
      "Ġ-=": 4372,
      "fill": 4373,
      "Ġmon": 4374,
      "ossible": 4375,
      "disable": 4376,
      "Ġ$_": 4377,
      "legate": 4378,
      "Ġignore": 4379,
      "Iterator": 4380,
      "Ġhope": 4381,
      "Ġinitial": 4382,
      ".\\": 4383,
      "Sw": 4384,
      "Ġwhether": 4385,
      "Ġwarranty": 4386,
      "00000": 4387,
      "video": 4388,
      "language": 4389,
      "Ġ\"$": 4390,
      "typeof": 4391,
      "DA": 4392,
      "We": 4393,
      "wner": 4394,
      "ĠBAS": 4395,
      "Ġgoto": 4396,
      "VALUE": 4397,
      "enabled": 4398,
      "trace": 4399,
      "Scope": 4400,
      "Can": 4401,
      "Ġ[];": 4402,
      "à¥": 4403,
      "master": 4404,
      "uby": 4405,
      "Ġ\"-": 4406,
      "pages": 4407,
      "ability": 4408,
      "DT": 4409,
      "ĠSc": 4410,
      "normal": 4411,
      "ADDR": 4412,
      "manager": 4413,
      "setup": 4414,
      "]:": 4415,
      "\\/": 4416,
      "ues": 4417,
      "]=": 4418,
      "Ġcontains": 4419,
      "Ġgoverning": 4420,
      "xffff": 4421,
      "ĠSIZE": 4422,
      "apply": 4423,
      "NavBarCell": 4424,
      "ÃŃ": 4425,
      "Ġsection": 4426,
      "Ã³": 4427,
      "ferent": 4428,
      "ĠFROM": 4429,
      "IMIT": 4430,
      "cloud": 4431,
      "rel": 4432,
      "ĠAS": 4433,
      "Report": 4434,
      "ĠQString": 4435,
      "Ass": 4436,
      "real": 4437,
      "assertEqual": 4438,
      "erge": 4439,
      "DEVICE": 4440,
      "blank": 4441,
      "network": 4442,
      "DER": 4443,
      "Ġ}}": 4444,
      "åĬ": 4445,
      "ĠBASIS": 4446,
      "ĠCONDITIONS": 4447,
      "Ġproperties": 4448,
      "tags": 4449,
      "aved": 4450,
      "profile": 4451,
      "SHIFT": 4452,
      "exists": 4453,
      "Ġtrack": 4454,
      "Fields": 4455,
      "Ġbetween": 4456,
      "Ġobjects": 4457,
      "Ġmask": 4458,
      "'));": 4459,
      "è®": 4460,
      "tach": 4461,
      "Descriptor": 4462,
      "Inst": 4463,
      ".,": 4464,
      "chip": 4465,
      "Rep": 4466,
      "parser": 4467,
      "GPIO": 4468,
      "fmt": 4469,
      "protobuf": 4470,
      "?>": 4471,
      "Ġ25": 4472,
      "CFG": 4473,
      "login": 4474,
      "assign": 4475,
      "ua": 4476,
      "WORD": 4477,
      "wrapper": 4478,
      "My": 4479,
      "numer": 4480,
      "Rel": 4481,
      "FT": 4482,
      "Ġrole": 4483,
      "super": 4484,
      "Ġlaw": 4485,
      "getName": 4486,
      "assertEquals": 4487,
      "Ġthese": 4488,
      "getElement": 4489,
      "One": 4490,
      "Ġ{};": 4491,
      "Ġinvalid": 4492,
      "Job": 4493,
      "ceive": 4494,
      "power": 4495,
      "71": 4496,
      "iddle": 4497,
      "Ġpy": 4498,
      "ĠLI": 4499,
      "Ġevents": 4500,
      "parator": 4501,
      "Env": 4502,
      "ORY": 4503,
      "CHAR": 4504,
      "ĠNode": 4505,
      "Ġ${": 4506,
      "Ġforeach": 4507,
      "urren": 4508,
      "Ġsure": 4509,
      "cer": 4510,
      "lug": 4511,
      "Ġraise": 4512,
      "gorith": 4513,
      "INIT": 4514,
      "Ġparam": 4515,
      "Struct": 4516,
      "ĊĠĠĠĠĠĠĠĠĠĠĠĠĠĠĠĠĠĠĠĠĠĠ": 4517,
      "ĠWHERE": 4518,
      "OFTW": 4519,
      "Ġour": 4520,
      "OFTWARE": 4521,
      "Ġstep": 4522,
      "Ġlimitations": 4523,
      "delay": 4524,
      "ze": 4525,
      "xA": 4526,
      "bc": 4527,
      "controller": 4528,
      "Ġprob": 4529,
      "Ġconf": 4530,
      "tabs": 4531,
      "****************************************************************************": 4532,
      "dia": 4533,
      "AUT": 4534,
      "ĠBO": 4535,
      "DS": 4536,
      "ĠAd": 4537,
      "ĠQu": 4538,
      "ĠWeb": 4539,
      "Ġbl": 4540,
      "Close": 4541,
      "trie": 4542,
      "FL": 4543,
      "Ġaddr": 4544,
      "dom": 4545,
      "Global": 4546,
      "letion": 4547,
      "ĠRed": 4548,
      "ired": 4549,
      "aterial": 4550,
      "Ġcons": 4551,
      "ĠMAX": 4552,
      "Non": 4553,
      "Tests": 4554,
      "ĊĊĊĠĠĠ": 4555,
      "Domain": 4556,
      "pass": 4557,
      "Ġconditions": 4558,
      "Ġmethods": 4559,
      "Ġge": 4560,
      "wr": 4561,
      "expr": 4562,
      "RC": 4563,
      "Err": 4564,
      "throws": 4565,
      "isset": 4566,
      "Only": 4567,
      "LIN": 4568,
      "havi": 4569,
      "Editor": 4570,
      "ĠALIGN": 4571,
      "93": 4572,
      "plan": 4573,
      "ĠUpdate": 4574,
      "Ġoriginal": 4575,
      "Ġweb": 4576,
      "EC": 4577,
      "nap": 4578,
      "Ġagreed": 4579,
      "Ġrelative": 4580,
      "KERN": 4581,
      "bad": 4582,
      "ircle": 4583,
      "IDTH": 4584,
      "scriptor": 4585,
      "Ġbeing": 4586,
      "ä¸Ģ": 4587,
      "MC": 4588,
      "keep": 4589,
      "ross": 4590,
      "HEAD": 4591,
      "ynchron": 4592,
      "%%%%": 4593,
      "Ġte": 4594,
      "ĠĠĠĠĠĠĠĠĠĠĠĠĠĠĠĠĠĠ": 4595,
      "ga": 4596,
      "Account": 4597,
      "proc": 4598,
      "sig": 4599,
      "points": 4600,
      "Ġreset": 4601,
      "editor": 4602,
      "symbol": 4603,
      "Ne": 4604,
      "åľ": 4605,
      "Policy": 4606,
      "ĠEnd": 4607,
      "Logger": 4608,
      "greg": 4609,
      "Ġ\"\",": 4610,
      "gh": 4611,
      "SCRIPT": 4612,
      "Ġown": 4613,
      "ĠTRUE": 4614,
      "EINVAL": 4615,
      "Support": 4616,
      "Failed": 4617,
      "alled": 4618,
      "Files": 4619,
      "chan": 4620,
      "Register": 4621,
      "plugins": 4622,
      "Remove": 4623,
      "math": 4624,
      "Ġprevious": 4625,
      "Func": 4626,
      "Ġkeys": 4627,
      "ango": 4628,
      "Parse": 4629,
      "81": 4630,
      "hell": 4631,
      "tric": 4632,
      "Ġequal": 4633,
      "Success": 4634,
      "results": 4635,
      "MODULE": 4636,
      "Len": 4637,
      "ĠĊĉ": 4638,
      "Ġconsole": 4639,
      "XML": 4640,
      "Ġdel": 4641,
      "={": 4642,
      "FIL": 4643,
      "mock": 4644,
      "čĊĠĠĠĠĠĠĠĠ": 4645,
      "Auto": 4646,
      "tbody": 4647,
      "SUP": 4648,
      "Post": 4649,
      "Ġui": 4650,
      "202": 4651,
      "Network": 4652,
      "ASSERT": 4653,
      "wild": 4654,
      "FC": 4655,
      "details": 4656,
      "ĠSOFTWARE": 4657,
      "counter": 4658,
      "/\">": 4659,
      "Ġadded": 4660,
      "ĠĠĠĠĠĠĠĠĠĠĠĠĠĠĠĠĠĠĠĠĠ": 4661,
      "Ġbits": 4662,
      ".',": 4663,
      "depth": 4664,
      "Spell": 4665,
      "('#": 4666,
      "git": 4667,
      "ĠUnless": 4668,
      "Expr": 4669,
      "uring": 4670,
      "Ġbegin": 4671,
      "bp": 4672,
      "Ġmenu": 4673,
      "icrosoft": 4674,
      "ĠBy": 4675,
      "attributes": 4676,
      "NONE": 4677,
      "%,": 4678,
      "Build": 4679,
      "Ġboth": 4680,
      "Ġacc": 4681,
      "xC": 4682,
      "\")]": 4683,
      "=\\\"": 4684,
      "Ġdepend": 4685,
      "Âł": 4686,
      "FP": 4687,
      "shared": 4688,
      "\":\"": 4689,
      "Ġinstead": 4690,
      "Ġsave": 4691,
      "Ġsample": 4692,
      "ually": 4693,
      "ĠĠĠĠĠĠĠĠĠĠĠĠĠĠĠĠĠĠĠĠĠĠĠĠĠĠĠĠĠĠĠĠĠĠĠĠĠĠĠĠĠĠĠĠĠĠĠĠĠĠĠĠĠĠĠĠĠĠĠĠĠĠĠĠ": 4694,
      "Ġstop": 4695,
      "audio": 4696,
      "Socket": 4697,
      "ĠĊĠĠĠĠĠĠĠĠĠĠĠ": 4698,
      "reshold": 4699,
      "sa": 4700,
      "Ġcorrect": 4701,
      "ĠKey": 4702,
      "Main": 4703,
      "LIST": 4704,
      "STRING": 4705,
      "Ġoperator": 4706,
      "ialization": 4707,
      "Selection": 4708,
      "pyx": 4709,
      "asm": 4710,
      "UNT": 4711,
      "ness": 4712,
      "Ġtab": 4713,
      "nr": 4714,
      "Ġtransform": 4715,
      "=\"\"": 4716,
      "USER": 4717,
      ")\"": 4718,
      "ELL": 4719,
      "ĠBase": 4720,
      ".\",": 4721,
      "socket": 4722,
      "ading": 4723,
      "Attributes": 4724,
      "Ġreport": 4725,
      "Ste": 4726,
      "()).": 4727,
      "vc": 4728,
      "Ġtransparent": 4729,
      "regs": 4730,
      "itter": 4731,
      "mouse": 4732,
      "ched": 4733,
      "ura": 4734,
      "FIELD": 4735,
      "ĠĠĠĠĠĠĠĠĠĠĠĠĠĠĠĠĠĠĠĠ": 4736,
      "Ġunit": 4737,
      "Double": 4738,
      "ĠNAME": 4739,
      "Ġreal": 4740,
      "ENO": 4741,
      "contrib": 4742,
      ";\">": 4743,
      "ictionary": 4744,
      "urface": 4745,
      "then": 4746,
      "contains": 4747,
      "comm": 4748,
      "Database": 4749,
      "quiv": 4750,
      "ONG": 4751,
      "soc": 4752,
      "fi": 4753,
      "eeded": 4754,
      "Ġput": 4755,
      "Transform": 4756,
      "reser": 4757,
      "jpg": 4758,
      "agement": 4759,
      "destroy": 4760,
      "EVENT": 4761,
      "]->": 4762,
      "ĠjQuery": 4763,
      "Ġ[],": 4764,
      "Ġnetwork": 4765,
      "transition": 4766,
      "children": 4767,
      "variable": 4768,
      "legal": 4769,
      "qui": 4770,
      "eek": 4771,
      "EG": 4772,
      "ĠOr": 4773,
      "Ġ'';": 4774,
      "ĠSET": 4775,
      "Memory": 4776,
      "Ġhelp": 4777,
      "sive": 4778,
      "acy": 4779,
      "ĠInteger": 4780,
      "Packet": 4781,
      "Extension": 4782,
      "}/": 4783,
      "inte": 4784,
      "Ġtypename": 4785,
      "Ġerrors": 4786,
      "tc": 4787,
      "Ġ'%": 4788,
      "gpio": 4789,
      "compiler": 4790,
      "Ġicon": 4791,
      "Media": 4792,
      "ĠSub": 4793,
      "Execut": 4794,
      "Profile": 4795,
      "Red": 4796,
      "Ġplayer": 4797,
      "Pool": 4798,
      "continue": 4799,
      "Loader": 4800,
      "_->": 4801,
      "cover": 4802,
      "ping": 4803,
      "Ġconvert": 4804,
      "ĠLo": 4805,
      "kw": 4806,
      "usb": 4807,
      ".\");": 4808,
      "Ġnotice": 4809,
      "Ġhow": 4810,
      "400": 4811,
      "submit": 4812,
      "Ġassign": 4813,
      ";/": 4814,
      "BL": 4815,
      "Ġproto": 4816,
      "Pointer": 4817,
      "================================================================": 4818,
      "{%": 4819,
      "Timer": 4820,
      "Ġactual": 4821,
      "Ġsys": 4822,
      "Ġdst": 4823,
      "username": 4824,
      "printk": 4825,
      "sock": 4826,
      "progress": 4827,
      "Ġ64": 4828,
      "9999": 4829,
      "issing": 4830,
      "ĠSPE": 4831,
      "NUM": 4832,
      "Mask": 4833,
      "Ġdifferent": 4834,
      "Ġ<?": 4835,
      ")).": 4836,
      "Ġprintf": 4837,
      "tools": 4838,
      "Ġtimeout": 4839,
      "Results": 4840,
      "execute": 4841,
      "ç»": 4842,
      "RAY": 4843,
      "cour": 4844,
      "ummy": 4845,
      "voke": 4846,
      "na": 4847,
      "arrow": 4848,
      "Ġclose": 4849,
      "Ġinsert": 4850,
      "Ġstructure": 4851,
      "WS": 4852,
      "gnu": 4853,
      "game": 4854,
      "Ġnp": 4855,
      "WRITE": 4856,
      "aws": 4857,
      "Ġtool": 4858,
      "gre": 4859,
      "<!": 4860,
      "Ġpassed": 4861,
      "Te": 4862,
      "MPL": 4863,
      "Ġcollection": 4864,
      "Selected": 4865,
      "čĊĠĠĠĠĠĠĠĠĠĠĠĠĠĠĠĠĠĠĠĠĠĠĠĠĠĠĠ": 4866,
      "gu": 4867,
      "Ġotherwise": 4868,
      "pid": 4869,
      "Ġ=========": 4870,
      "ocus": 4871,
      "complete": 4872,
      "ansport": 4873,
      "ĠRead": 4874,
      "Require": 4875,
      "xD": 4876,
      "ae": 4877,
      "Scale": 4878,
      "PACK": 4879,
      "ĊĠĠĠĠĠĠĠĠĠĠĠĠĠĠĠĠĠĠĠĠĠĠĠĠĠĠĠĠ": 4880,
      "zz": 4881,
      "Ġtd": 4882,
      "Ġindic": 4883,
      "Ġns": 4884,
      "Ġdriver": 4885,
      "where": 4886,
      "boost": 4887,
      "RECT": 4888,
      "ĠForm": 4889,
      "Ġaccount": 4890,
      "SPE": 4891,
      "Ġ19": 4892,
      "redential": 4893,
      "oly": 4894,
      "ĠCode": 4895,
      "shift": 4896,
      "sidebar": 4897,
      "ĠText": 4898,
      "ĠPer": 4899,
      "ÙĨ": 4900,
      "external": 4901,
      "Ġclean": 4902,
      "bi": 4903,
      "olver": 4904,
      "Ġsince": 4905,
      "à§": 4906,
      "Ġocc": 4907,
      "ested": 4908,
      "role": 4909,
      "Ġauth": 4910,
      "invalid": 4911,
      "}{": 4912,
      "ants": 4913,
      "Ġnodes": 4914,
      "Feature": 4915,
      "INST": 4916,
      "ĠNote": 4917,
      "asure": 4918,
      "ao": 4919,
      "PA": 4920,
      "START": 4921,
      "Ġ*,": 4922,
      "groups": 4923,
      "Word": 4924,
      "ajax": 4925,
      "Ġbased": 4926,
      "Ñı": 4927,
      "ĠLOG": 4928,
      "oration": 4929,
      "Keys": 4930,
      "coin": 4931,
      "policy": 4932,
      "trics": 4933,
      "Internal": 4934,
      "Ġmd": 4935,
      "Ġdoesn": 4936,
      ":%": 4937,
      "virtual": 4938,
      "DU": 4939,
      "ĠUSE": 4940,
      "ĊĊĊĊĊĊĊĊ": 4941,
      "mach": 4942,
      "Game": 4943,
      "checkbox": 4944,
      "ĠĊĠĠĠĠ": 4945,
      "COMM": 4946,
      "itu": 4947,
      "hy": 4948,
      "ives": 4949,
      "memory": 4950,
      "ĠDesc": 4951,
      "metadata": 4952,
      "pull": 4953,
      "CCESS": 4954,
      "vid": 4955,
      "TIM": 4956,
      "errors": 4957,
      "('.": 4958,
      "Directory": 4959,
      "ĊĠĠĠĠĠĠĠĠĠĠĠĠĠĠĠĠĠĠĠĠĠĠĠĠĠĠĠĠĠ": 4960,
      "anner": 4961,
      "NC": 4962,
      "FIX": 4963,
      "bf": 4964,
      "Proxy": 4965,
      "losed": 4966,
      "users": 4967,
      "}\"": 4968,
      "glyphicon": 4969,
      "Ġloop": 4970,
      ")\\": 4971,
      "Help": 4972,
      "runtime": 4973,
      "trl": 4974,
      "protocol": 4975,
      "SV": 4976,
      "Ġpr": 4977,
      "Ġcould": 4978,
      "exec": 4979,
      "IAL": 4980,
      "atomic": 4981,
      "Ġattributes": 4982,
      "ANCE": 4983,
      "Ġsupported": 4984,
      "ĊĠĠĠĠĠĠĠĠĠĠĠĠĠĠĠĠĠĠĠĠĠĠĠĠĠĠ": 4985,
      "eta": 4986,
      "Mouse": 4987,
      "æĺ¯": 4988,
      "RIGHT": 4989,
      "}.": 4990,
      "since": 4991,
      "wl": 4992,
      "Each": 4993,
      "Ġcannot": 4994,
      "Ġtypeof": 4995,
      "utable": 4996,
      "Selector": 4997,
      "DMA": 4998,
      "]*": 4999,
      "ĠIE": 5000,
      "EXPORT": 5001,
      "Ġagain": 5002,
      "'re": 5003,
      "ĊĠĠĠĠĠĠĠĠĠĠĠĠĊĠĠĠĠĠĠĠĠĠĠĠ": 5004,
      "è¡": 5005,
      "gorithm": 5006,
      "Attr": 5007,
      "åŃ": 5008,
      "quote": 5009,
      "properties": 5010,
      "Ġapply": 5011,
      "commit": 5012,
      "Ġwx": 5013,
      "AVE": 5014,
      "Ġprefix": 5015,
      "hpp": 5016,
      "(@": 5017,
      "iki": 5018,
      "wd": 5019,
      "Ġreplace": 5020,
      "']);": 5021,
      "hedul": 5022,
      "browser": 5023,
      "inherit": 5024,
      "ĠGPIO": 5025,
      "entication": 5026,
      "Member": 5027,
      "collapse": 5028,
      "gradient": 5029,
      "ges": 5030,
      "rome": 5031,
      "cut": 5032,
      "CAP": 5033,
      "Ġzero": 5034,
      "lipse": 5035,
      "################################": 5036,
      "Space": 5037,
      "CLASS": 5038,
      "\\+": 5039,
      "found": 5040,
      "Ġmsm": 5041,
      "AI": 5042,
      "ĊĊĠĠĠĠĠĠĠĠĠ": 5043,
      "Ġwould": 5044,
      ".<": 5045,
      "ĠEN": 5046,
      "href": 5047,
      "come": 5048,
      "Ġenabled": 5049,
      "lines": 5050,
      "svg": 5051,
      ")\",": 5052,
      "UEST": 5053,
      "Ob": 5054,
      "itive": 5055,
      "Nodes": 5056,
      "verter": 5057,
      "cu": 5058,
      "ĠSk": 5059,
      "Ġjob": 5060,
      "Ġimplements": 5061,
      "Ġbind": 5062,
      "ToString": 5063,
      "ymf": 5064,
      "SW": 5065,
      "LOAD": 5066,
      "scan": 5067,
      "áĥ": 5068,
      "ymfony": 5069,
      "ĠMessage": 5070,
      "Ġalways": 5071,
      "ili": 5072,
      "endor": 5073,
      "ARGET": 5074,
      "Events": 5075,
      "DEC": 5076,
      "Ġ\"\";": 5077,
      "Ġlib": 5078,
      "Dest": 5079,
      "INTER": 5080,
      "loop": 5081,
      "Flag": 5082,
      "opts": 5083,
      "Wrapper": 5084,
      "Constants": 5085,
      "detail": 5086,
      "safe": 5087,
      "Ġhand": 5088,
      "Ġpossible": 5089,
      "WIN": 5090,
      "SOUR": 5091,
      "ressed": 5092,
      "æķ°": 5093,
      "va": 5094,
      "dep": 5095,
      "owner": 5096,
      "throw": 5097,
      "loader": 5098,
      "rd": 5099,
      "components": 5100,
      "Trace": 5101,
      "msm": 5102,
      "Ind": 5103,
      "raft": 5104,
      "UTE": 5105,
      "Role": 5106,
      "scss": 5107,
      "Ġ{{": 5108,
      "Ġdefinition": 5109,
      "rec": 5110,
      "random": 5111,
      "icode": 5112,
      "BAR": 5113,
      "SPAN": 5114,
      "identifier": 5115,
      "Ġhigh": 5116,
      "logger": 5117,
      "Ġ17": 5118,
      "println": 5119,
      "Ð¼": 5120,
      "lign": 5121,
      "sz": 5122,
      "\"><!--": 5123,
      "ĠCH": 5124,
      "Conf": 5125,
      "001": 5126,
      "Fail": 5127,
      "ĠLoc": 5128,
      "TRUE": 5129,
      "UINT": 5130,
      "upload": 5131,
      "dump": 5132,
      "als": 5133,
      "pub": 5134,
      "Ġpassword": 5135,
      "visible": 5136,
      "VAR": 5137,
      "Ġskip": 5138,
      "Ġbinary": 5139,
      "ĠEND": 5140,
      "Java": 5141,
      "Ġrelease": 5142,
      "dist": 5143,
      "Ġtranslate": 5144,
      "Ġob": 5145,
      "NET": 5146,
      "ĠSU": 5147,
      "Ġdocumentation": 5148,
      "Warning": 5149,
      "That": 5150,
      "Cap": 5151,
      "Ġassociated": 5152,
      "storage": 5153,
      "æĹ": 5154,
      "éĢ": 5155,
      "Ġsuch": 5156,
      "adoop": 5157,
      "pointer": 5158,
      "tect": 5159,
      "jection": 5160,
      "ulator": 5161,
      "Full": 5162,
      "feature": 5163,
      "ench": 5164,
      "Annot": 5165,
      "activ": 5166,
      "Ġrot": 5167,
      "Ġ];": 5168,
      "Scroll": 5169,
      "()</": 5170,
      "ĠOption": 5171,
      "ium": 5172,
      "FFER": 5173,
      "ĠAt": 5174,
      "Statement": 5175,
      "Ø±": 5176,
      "WARN": 5177,
      "Ġ&=": 5178,
      "Protocol": 5179,
      "GEN": 5180,
      "operand": 5181,
      "typename": 5182,
      "Ġadditional": 5183,
      "]))": 5184,
      "RI": 5185,
      "Eng": 5186,
      "ied": 5187,
      "]+": 5188,
      "Found": 5189,
      "props": 5190,
      "('/": 5191,
      "=$": 5192,
      "alys": 5193,
      "ather": 5194,
      "Ġabsolute": 5195,
      "ĠASS": 5196,
      ":#": 5197,
      "Ġcursor": 5198,
      "Lim": 5199,
      "Abstract": 5200,
      "kens": 5201,
      "ARD": 5202,
      "lus": 5203,
      "Ġwithin": 5204,
      "ĠDB": 5205,
      "Ġentity": 5206,
      "security": 5207,
      "Pattern": 5208,
      "UTF": 5209,
      "Ġ2015": 5210,
      "cel": 5211,
      "ĠHt": 5212,
      "Ġcharacter": 5213,
      "utes": 5214,
      "Mac": 5215,
      "Ġ1000": 5216,
      "ysql": 5217,
      "ertific": 5218,
      "à®": 5219,
      "helper": 5220,
      "flex": 5221,
      "Ġvert": 5222,
      "LIB": 5223,
      "ĠOut": 5224,
      "collection": 5225,
      "usr": 5226,
      "Ġ----------------------------------------------------------------": 5227,
      "grade": 5228,
      "Runtime": 5229,
      "å°": 5230,
      "ĉĉĉĉĉĉĉĉ": 5231,
      "ube": 5232,
      "Ġfix": 5233,
      "MAC": 5234,
      "look": 5235,
      "Ġsymbol": 5236,
      "Ġchanges": 5237,
      "USB": 5238,
      "/\"": 5239,
      "Ġmachine": 5240,
      "alysis": 5241,
      "Any": 5242,
      "čĊĉĉĉĉĉĉ": 5243,
      "crement": 5244,
      "Ġdomain": 5245,
      "UND": 5246,
      "å¼": 5247,
      "atio": 5248,
      "Admin": 5249,
      "Activity": 5250,
      "ĠIOException": 5251,
      "slice": 5252,
      "ORS": 5253,
      "Effect": 5254,
      "ä¹": 5255,
      "NV": 5256,
      "Import": 5257,
      "Simple": 5258,
      "radio": 5259,
      "Temp": 5260,
      "->{": 5261,
      "ND": 5262,
      "Visible": 5263,
      "Ġpop": 5264,
      "Ġway": 5265,
      "ILD": 5266,
      "BB": 5267,
      "ĊĠĠĠĠĠĠĠĠĠĠĠĠĠĠĠĠĠĠĠĠĠĠĠĠĠĠĠĠĠĠĠĠĠĠĠĠĠĠĠĠĠĠĠĠĠĠĠ": 5268,
      "NotNull": 5269,
      "indexOf": 5270,
      "Ġ\".": 5271,
      "rg": 5272,
      "UPDATE": 5273,
      "Mapping": 5274,
      "Ġtheir": 5275,
      "čĊĠĠĠĠĠĠĠĠĠĠĠĠĠĠĠĠĠĠĠĠĠĠĠĠĠĠĠĠĠĠĠĠĠĠĠ": 5276,
      "Ġmock": 5277,
      "Ġidx": 5278,
      "()))": 5279,
      "required": 5280,
      "picker": 5281,
      "'}": 5282,
      "sf": 5283,
      "Ġ).": 5284,
      "Ġlang": 5285,
      "Engine": 5286,
      "encies": 5287,
      "Save": 5288,
      "Ġinv": 5289,
      "jango": 5290,
      "ĠRegister": 5291,
      "Ġneeded": 5292,
      "ĠDEFAULT": 5293,
      "akes": 5294,
      "ĠĊĠĠĠĠĠĠĠ": 5295,
      "SYS": 5296,
      "TS": 5297,
      "Ġmultiple": 5298,
      "derr": 5299,
      "THOD": 5300,
      "ĊĉĠĠĠĠĠĠĠ": 5301,
      "rect": 5302,
      "hci": 5303,
      "EY": 5304,
      "hes": 5305,
      "čĊĠĠĠĠĠĠĠĠĠ": 5306,
      "ffic": 5307,
      "Ġ\\\"": 5308,
      "nodes": 5309,
      "CLUD": 5310,
      "Ġsetting": 5311,
      "blog": 5312,
      "CLUDING": 5313,
      "EEEE": 5314,
      "alle": 5315,
      "schema": 5316,
      "Generic": 5317,
      "\"].": 5318,
      "bound": 5319,
      "caption": 5320,
      "ayment": 5321,
      "ocaml": 5322,
      "mediate": 5323,
      "sel": 5324,
      "Ġfmt": 5325,
      "zero": 5326,
      "tf": 5327,
      "mob": 5328,
      "El": 5329,
      "Ġmatrix": 5330,
      "Tx": 5331,
      "Ġbottom": 5332,
      "ĠDO": 5333,
      "ons": 5334,
      "annotation": 5335,
      "VIDE": 5336,
      "ĠStatus": 5337,
      "ĠPoint": 5338,
      "horizontal": 5339,
      "alf": 5340,
      "Ġmp": 5341,
      "You": 5342,
      "PF": 5343,
      "ĠBit": 5344,
      "Ġbr": 5345,
      "Ġgenerated": 5346,
      "Ġdim": 5347,
      "chart": 5348,
      "elem": 5349,
      "Ġapi": 5350,
      "300": 5351,
      "Ġwhat": 5352,
      "velop": 5353,
      "Ġcharset": 5354,
      "nost": 5355,
      "Move": 5356,
      "Ġchanged": 5357,
      "ĠHash": 5358,
      "ĠVector": 5359,
      "CTYPE": 5360,
      "ship": 5361,
      "ĊĉĉĠ": 5362,
      "Ġvia": 5363,
      "drv": 5364,
      "headers": 5365,
      "!!": 5366,
      "ĠPH": 5367,
      "tsd": 5368,
      "mater": 5369,
      "Product": 5370,
      "nl": 5371,
      "Ġdraw": 5372,
      "SUCCESS": 5373,
      "Ġplatform": 5374,
      "sumer": 5375,
      "mix": 5376,
      "Security": 5377,
      "Stats": 5378,
      "parameters": 5379,
      "Ġstrict": 5380,
      "CPU": 5381,
      "ĠASSERT": 5382,
      "/_": 5383,
      "ha": 5384,
      "Prefix": 5385,
      "extra": 5386,
      "Ġmove": 5387,
      "force": 5388,
      "Ġevery": 5389,
      "ĠĠĠĠĠĠĠĠĠĠĠĠĠĠĠĠĠĠĠĠĠĠĠ": 5390,
      "Ð´": 5391,
      "Repository": 5392,
      "requ": 5393,
      "Ġhidden": 5394,
      "vance": 5395,
      "rot": 5396,
      "vt": 5397,
      "Ġcap": 5398,
      "spacing": 5399,
      "bot": 5400,
      "Ġasync": 5401,
      "Ġlogger": 5402,
      "Ġconstructor": 5403,
      "async": 5404,
      "Ġimplementation": 5405,
      "culate": 5406,
      "Ġinterrupt": 5407,
      "Ġsetup": 5408,
      "ĠWindow": 5409,
      "Ġsmall": 5410,
      "OW": 5411,
      "ĠON": 5412,
      "Ñĭ": 5413,
      "elf": 5414,
      "Sort": 5415,
      "Ġnullptr": 5416,
      "Addr": 5417,
      "999": 5418,
      "Ġ=======": 5419,
      "acters": 5420,
      "operator": 5421,
      "ĠCONTR": 5422,
      "ÙĦ": 5423,
      "round": 5424,
      "Ġtri": 5425,
      "inc": 5426,
      ",$": 5427,
      "zip": 5428,
      "IconError": 5429,
      "Ġauthor": 5430,
      "aut": 5431,
      "Ġproduct": 5432,
      "mu": 5433,
      "Before": 5434,
      "Identifier": 5435,
      "ATCH": 5436,
      "ĠMethod": 5437,
      "Multi": 5438,
      "Vertex": 5439,
      "Ġ''": 5440,
      "PARAM": 5441,
      "Ġok": 5442,
      "Math": 5443,
      "Ġexists": 5444,
      "IconErrorEncoded": 5445,
      "vs": 5446,
      "special": 5447,
      "Qt": 5448,
      "mbers": 5449,
      "respon": 5450,
      "istics": 5451,
      "Ġ40": 5452,
      "Pr": 5453,
      "ORDER": 5454,
      "Shape": 5455,
      "heme": 5456,
      "Ġdec": 5457,
      "note": 5458,
      "ĠĊĠ": 5459,
      "mk": 5460,
      "Ġ$.": 5461,
      "ĠNumber": 5462,
      "fixed": 5463,
      "Common": 5464,
      "ĠIF": 5465,
      "ategy": 5466,
      "SUB": 5467,
      "once": 5468,
      "hi": 5469,
      "ĠLICENSE": 5470,
      "ĠSQL": 5471,
      "Namespace": 5472,
      "čĊĠĠĠĠĠĠĠĠĠĠĠĠĠĠĠĠĠĠĠĠĠĠĠĠĠĠĠĠĠĠĠ": 5473,
      "ĠCELL": 5474,
      "ĠArrayList": 5475,
      "Ġsocket": 5476,
      "Ġsu": 5477,
      "\"`": 5478,
      "ublish": 5479,
      "ä¸ª": 5480,
      "Ġbuilder": 5481,
      "Ġaccept": 5482,
      "console": 5483,
      "BACK": 5484,
      "Ġ^": 5485,
      "æī": 5486,
      "ĠRequest": 5487,
      "ÑĮ": 5488,
      "EP": 5489,
      "condition": 5490,
      "GO": 5491,
      "Ġconnect": 5492,
      "ĠDis": 5493,
      "Fin": 5494,
      "CUR": 5495,
      "resources": 5496,
      "Ġgraph": 5497,
      "åĽ": 5498,
      "Bits": 5499,
      "Ġperform": 5500,
      "quires": 5501,
      "EST": 5502,
      "diff": 5503,
      "ĠUN": 5504,
      "expect": 5505,
      "ĠInput": 5506,
      "sy": 5507,
      "encode": 5508,
      "Category": 5509,
      "ĠOTHER": 5510,
      "ĠĠĠĠĠĠĠĠĠĠĠĠĠĠĠĠĠĠĠĠĠĠ": 5511,
      "BUFFER": 5512,
      "Ð²": 5513,
      "lain": 5514,
      "actions": 5515,
      "urrency": 5516,
      "jQuery": 5517,
      "BYTE": 5518,
      "ĠÂ": 5519,
      "repeat": 5520,
      "Ġsnd": 5521,
      "SSL": 5522,
      "Total": 5523,
      "Ġmedia": 5524,
      "Ġ();": 5525,
      ">'": 5526,
      "ĠImp": 5527,
      "attach": 5528,
      "Ġ(%": 5529,
      "ident": 5530,
      "fw": 5531,
      "highlight": 5532,
      "Language": 5533,
      "TAG": 5534,
      "Ġrunning": 5535,
      "Ġexpression": 5536,
      "olution": 5537,
      "NG": 5538,
      "Ġpan": 5539,
      "aaaa": 5540,
      "Ġsequence": 5541,
      "Ġwallet": 5542,
      "loor": 5543,
      "retval": 5544,
      "EEEEFF": 5545,
      "DOCTYPE": 5546,
      "Sample": 5547,
      "Dec": 5548,
      "riteria": 5549,
      "ibrary": 5550,
      "cursor": 5551,
      "course": 5552,
      "Ġim": 5553,
      "cn": 5554,
      "eriv": 5555,
      "ensure": 5556,
      "Ġvm": 5557,
      "Ġbelow": 5558,
      "Password": 5559,
      "Ġparser": 5560,
      "hadoop": 5561,
      "Ġrandom": 5562,
      "ĠAct": 5563,
      "ĠKEY": 5564,
      "Generator": 5565,
      "OPY": 5566,
      "HR": 5567,
      "imate": 5568,
      "oll": 5569,
      "SEL": 5570,
      "=-": 5571,
      "=(": 5572,
      "Sequence": 5573,
      "(\"#": 5574,
      "ached": 5575,
      "sser": 5576,
      "377": 5577,
      "foreach": 5578,
      "DEX": 5579,
      "agent": 5580,
      "Ġfill": 5581,
      "ĠAb": 5582,
      "Ġtests": 5583,
      "ĠMake": 5584,
      "ullable": 5585,
      "Ġwr": 5586,
      "Proto": 5587,
      "ĠVal": 5588,
      "Ġest": 5589,
      "pare": 5590,
      "ĊĉĉĉĠĠĠ": 5591,
      "utomatic": 5592,
      "Ġcop": 5593,
      "Align": 5594,
      "Area": 5595,
      "builder": 5596,
      "Region": 5597,
      "Ġà¤": 5598,
      "Browser": 5599,
      "napshot": 5600,
      "Details": 5601,
      "objects": 5602,
      "pear": 5603,
      "ĠItem": 5604,
      "Ġpattern": 5605,
      "Ġscreen": 5606,
      "%\"": 5607,
      "Ġ\"#": 5608,
      "Ġraw": 5609,
      "Registry": 5610,
      "åį": 5611,
      "ĠSource": 5612,
      "ka": 5613,
      "igr": 5614,
      "ough": 5615,
      "Ġside": 5616,
      "pad": 5617,
      "ssl": 5618,
      "proxy": 5619,
      "spi": 5620,
      "navList": 5621,
      "dup": 5622,
      "HTTP": 5623,
      "ured": 5624,
      "ital": 5625,
      "Ġgenerate": 5626,
      "/*!": 5627,
      "Ġgen": 5628,
      "allclasses": 5629,
      "ARCH": 5630,
      "čĊčĊĠĠĠĠĠĠĠĠĠĠĠ": 5631,
      "VEL": 5632,
      "ĠCOPY": 5633,
      "å¯": 5634,
      "Av": 5635,
      "supported": 5636,
      "kt": 5637,
      "Ġ'\"": 5638,
      "AF": 5639,
      "Pair": 5640,
      "pattern": 5641,
      "SOURCE": 5642,
      "resses": 5643,
      "Ġopacity": 5644,
      "pdev": 5645,
      "Ġes": 5646,
      "tries": 5647,
      "romise": 5648,
      "Pe": 5649,
      "route": 5650,
      "rev": 5651,
      "Ġtrigger": 5652,
      "ĠField": 5653,
      "TK": 5654,
      "FOR": 5655,
      "Opt": 5656,
      "LC": 5657,
      "COUNT": 5658,
      "notify": 5659,
      "pet": 5660,
      "Ġ2014": 5661,
      "åº": 5662,
      "parameter": 5663,
      "Ġelif": 5664,
      "Ġemail": 5665,
      "NavBarFont": 5666,
      "LY": 5667,
      "thumb": 5668,
      "Texture": 5669,
      "chunk": 5670,
      "JS": 5671,
      "fetch": 5672,
      "Condition": 5673,
      "tv": 5674,
      "escape": 5675,
      "~~~~": 5676,
      "Ġ'.": 5677,
      "validate": 5678,
      "colLast": 5679,
      "signature": 5680,
      "contents": 5681,
      "0001": 5682,
      "Stat": 5683,
      "Agent": 5684,
      "bat": 5685,
      "green": 5686,
      "illa": 5687,
      "Ġvol": 5688,
      "TUR": 5689,
      "ĠJava": 5690,
      "isc": 5691,
      "Ġwhite": 5692,
      "Ã§": 5693,
      "Bl": 5694,
      "unique": 5695,
      "material": 5696,
      "ĠWhen": 5697,
      "Ġspan": 5698,
      "URI": 5699,
      "__);": 5700,
      "tm": 5701,
      "xhtml": 5702,
      "(\"/": 5703,
      "Constraint": 5704,
      "ĠDA": 5705,
      "phy": 5706,
      "extend": 5707,
      "OBJECT": 5708,
      "atile": 5709,
      "TRACE": 5710,
      "clone": 5711,
      "Ġshift": 5712,
      "ood": 5713,
      "Cmd": 5714,
      "Ġdesc": 5715,
      "angular": 5716,
      "Ġvariables": 5717,
      "Mat": 5718,
      "tile": 5719,
      "mitted": 5720,
      "Ġonce": 5721,
      "Ġiss": 5722,
      "After": 5723,
      "Ġpoints": 5724,
      "contact": 5725,
      "istration": 5726,
      "Ġ(!(": 5727,
      "Ġoptional": 5728,
      "strict": 5729,
      "Second": 5730,
      "ĊĉĠĠĠĠ": 5731,
      "Ġlinks": 5732,
      "Db": 5733,
      "effect": 5734,
      "ĠCo": 5735,
      "Route": 5736,
      "DateTime": 5737,
      "Ġimg": 5738,
      "oog": 5739,
      "flush": 5740,
      "Ġsent": 5741,
      "Ġsql": 5742,
      "Div": 5743,
      "ari": 5744,
      "Elements": 5745,
      "(\"\\": 5746,
      "ulate": 5747,
      "Ġmessages": 5748,
      "Ġcore": 5749,
      "ĠHe": 5750,
      "Duration": 5751,
      "pin": 5752,
      "LS": 5753,
      "ruby": 5754,
      "lers": 5755,
      "Step": 5756,
      "Ġ'#": 5757,
      "||": 5758,
      "ĊĉĉĉĠ": 5759,
      "Sync": 5760,
      "chain": 5761,
      "colFirst": 5762,
      "ä¸Ń": 5763,
      "Ġkeep": 5764,
      "getValue": 5765,
      "ìĿ": 5766,
      "Ġ00": 5767,
      "PAGE": 5768,
      "ves": 5769,
      "los": 5770,
      "ĠÐ¿": 5771,
      "Ġbound": 5772,
      "merge": 5773,
      "alpha": 5774,
      "Ġappend": 5775,
      "clock": 5776,
      "ĠStart": 5777,
      "linear": 5778,
      "ĠAnd": 5779,
      "constructor": 5780,
      "INVALID": 5781,
      "BLOCK": 5782,
      "ĠView": 5783,
      "SG": 5784,
      "ks": 5785,
      "ÛĮ": 5786,
      "Ġdisabled": 5787,
      "ĊĊĉĉĉĉ": 5788,
      "icate": 5789,
      "Ġexisting": 5790,
      ":'": 5791,
      "Ġfeature": 5792,
      "LINK": 5793,
      "heduler": 5794,
      "Ġamount": 5795,
      "marks": 5796,
      "()),": 5797,
      "rank": 5798,
      "Â¤": 5799,
      "Ã¥": 5800,
      "(/": 5801,
      "Ġusb": 5802,
      "orrect": 5803,
      "pair": 5804,
      "gative": 5805,
      "mal": 5806,
      "ĠTra": 5807,
      "CALL": 5808,
      "gif": 5809,
      "Ġendif": 5810,
      "FUNCTION": 5811,
      "Ġcontaining": 5812,
      "Play": 5813,
      "ĠLIMIT": 5814,
      "gc": 5815,
      "101": 5816,
      "Ġcolspan": 5817,
      "Ġbar": 5818,
      "BUS": 5819,
      "Ġheaders": 5820,
      "GRO": 5821,
      "unch": 5822,
      "Ġallowed": 5823,
      "LD": 5824,
      "Forms": 5825,
      "cluding": 5826,
      "Section": 5827,
      "Progress": 5828,
      "Ġinherit": 5829,
      "cook": 5830,
      "Ġ60": 5831,
      "amage": 5832,
      "heading": 5833,
      "Interval": 5834,
      "Ġ×": 5835,
      "Ġsubject": 5836,
      "ĠIMP": 5837,
      "Ġextra": 5838,
      "alert": 5839,
      "ĊĉĠĠ": 5840,
      "YY": 5841,
      "loaded": 5842,
      "slot": 5843,
      "claration": 5844,
      "feed": 5845,
      "lik": 5846,
      "Ġlines": 5847,
      "Ġč": 5848,
      "Skip": 5849,
      "ĠPCI": 5850,
      "yes": 5851,
      "Ġlayer": 5852,
      "ble": 5853,
      "havior": 5854,
      "argv": 5855,
      "big": 5856,
      "isEmpty": 5857,
      "Ġmov": 5858,
      "So": 5859,
      "dm": 5860,
      "AST": 5861,
      "ja": 5862,
      "OFFSET": 5863,
      "undefined": 5864,
      "Ġedit": 5865,
      "ĠXML": 5866,
      "blue": 5867,
      "ĠTask": 5868,
      "ĠImage": 5869,
      "ulation": 5870,
      "kernel": 5871,
      "road": 5872,
      "IRQ": 5873,
      "ĠQt": 5874,
      "Ġchunk": 5875,
      "hip": 5876,
      "___": 5877,
      "ros": 5878,
      "Free": 5879,
      "matrix": 5880,
      "ights": 5881,
      "testing": 5882,
      "generated": 5883,
      "vars": 5884,
      "depend": 5885,
      "Find": 5886,
      "izes": 5887,
      "ĠAuthor": 5888,
      "ĠSD": 5889,
      "Screen": 5890,
      "ĠCre": 5891,
      "logy": 5892,
      "Des": 5893,
      "spend": 5894,
      "alance": 5895,
      "PIN": 5896,
      "dbg": 5897,
      "Ġwritten": 5898,
      "ÙĪ": 5899,
      "Ġuntil": 5900,
      "strip": 5901,
      "Ġpresent": 5902,
      "Ġopts": 5903,
      "ycle": 5904,
      "llegal": 5905,
      "ertificate": 5906,
      "ites": 5907,
      "construct": 5908,
      "FB": 5909,
      "ISE": 5910,
      "Ġperson": 5911,
      "icket": 5912,
      "Ġcontroller": 5913,
      "Ġclock": 5914,
      ")\">": 5915,
      "Author": 5916,
      "archive": 5917,
      "ĠGets": 5918,
      "covery": 5919,
      "PY": 5920,
      "alth": 5921,
      "]['": 5922,
      "Folder": 5923,
      "Gr": 5924,
      "Ġextension": 5925,
      "iagnost": 5926,
      "UST": 5927,
      "åľ¨": 5928,
      ")[": 5929,
      "RESS": 5930,
      "Fix": 5931,
      "Ids": 5932,
      "atible": 5933,
      "Rate": 5934,
      "FD": 5935,
      "WA": 5936,
      "Returns": 5937,
      "pow": 5938,
      "æł": 5939,
      "download": 5940,
      "Ġdisable": 5941,
      "FORMAT": 5942,
      "ĊĠĠĠĠĠĠĠĠĠĠĠĠĠĠĠĠĠĠĠĠĠĠĠĠĠĠĠĠĠĠ": 5943,
      "curr": 5944,
      "LETE": 5945,
      "Clear": 5946,
      "Ġ22": 5947,
      "DBG": 5948,
      "Ġsum": 5949,
      "roke": 5950,
      "ĠMem": 5951,
      "________": 5952,
      "'=>": 5953,
      "Ġplay": 5954,
      "Short": 5955,
      "Limit": 5956,
      "question": 5957,
      "cessed": 5958,
      "**/": 5959,
      "aries": 5960,
      "ceiver": 5961,
      "GTH": 5962,
      "rv": 5963,
      "Ġanother": 5964,
      "FAIL": 5965,
      "dot": 5966,
      "LEVEL": 5967,
      ">';": 5968,
      "sensor": 5969,
      "Normal": 5970,
      "Ġsim": 5971,
      "Ġinode": 5972,
      "Ġmember": 5973,
      "ison": 5974,
      "500": 5975,
      "Ġmac": 5976,
      "phone": 5977,
      "slide": 5978,
      "GUID": 5979,
      "VR": 5980,
      "duce": 5981,
      "ica": 5982,
      "Ġmetadata": 5983,
      "aff": 5984,
      "Ġbrowser": 5985,
      "ĠTe": 5986,
      "ĠHandle": 5987,
      "ement": 5988,
      "âĶ": 5989,
      "Video": 5990,
      "AX": 5991,
      "Ġsb": 5992,
      "WM": 5993,
      "Bound": 5994,
      "cons": 5995,
      "Ġtoo": 5996,
      "HAS": 5997,
      "itude": 5998,
      "tegr": 5999,
      "Volume": 6000,
      ":(": 6001,
      "Tile": 6002,
      "checked": 6003,
      "ĠIndex": 6004,
      "ird": 6005,
      "ĠREG": 6006,
      "lave": 6007,
      "slider": 6008,
      "uses": 6009,
      "Ġsite": 6010,
      "Comment": 6011,
      "Ġë": 6012,
      "inf": 6013,
      "Ġeq": 6014,
      "inux": 6015,
      "gnore": 6016,
      "HO": 6017,
      "single": 6018,
      "idate": 6019,
      "Html": 6020,
      "views": 6021,
      "Tri": 6022,
      "CONTR": 6023,
      "cluster": 6024,
      "ĠLesser": 6025,
      "Ali": 6026,
      "ĠWrite": 6027,
      "ÐµÐ½": 6028,
      "getElementById": 6029,
      "Ġmaximum": 6030,
      "Ġcontribut": 6031,
      "ĠHttp": 6032,
      "Ġprev": 6033,
      "Single": 6034,
      "ooks": 6035,
      "ĠGoogle": 6036,
      "Øª": 6037,
      "VO": 6038,
      "Dim": 6039,
      "Ġstrings": 6040,
      "Ġcurrently": 6041,
      "Permission": 6042,
      "sequence": 6043,
      "$_": 6044,
      "ĠRemove": 6045,
      "MBOL": 6046,
      "æľī": 6047,
      "MBER": 6048,
      "ĠMod": 6049,
      "Depend": 6050,
      "ĠHTTP": 6051,
      "Ġoverflow": 6052,
      "PK": 6053,
      "COM": 6054,
      "Ġsimple": 6055,
      "Lower": 6056,
      "services": 6057,
      "ĠRun": 6058,
      "Ġptr": 6059,
      "ĠBY": 6060,
      "PHP": 6061,
      "nil": 6062,
      "Ġremoved": 6063,
      "Ãł": 6064,
      "&&": 6065,
      "Ġincluded": 6066,
      "compare": 6067,
      ";\"": 6068,
      "ãģ®": 6069,
      "HAL": 6070,
      "Ġupdated": 6071,
      "ookie": 6072,
      "Ġscroll": 6073,
      "integer": 6074,
      "Ġduring": 6075,
      "factory": 6076,
      "bose": 6077,
      "=\"<?": 6078,
      "ĠDMA": 6079,
      "dk": 6080,
      "ĠBe": 6081,
      "Bean": 6082,
      "blk": 6083,
      "Ġstat": 6084,
      "Props": 6085,
      "ategories": 6086,
      "Ġlayout": 6087,
      "ric": 6088,
      "changed": 6089,
      "Ġwidget": 6090,
      "ture": 6091,
      "aging": 6092,
      "uest": 6093,
      "pci": 6094,
      "***": 6095,
      "rest": 6096,
      "deg": 6097,
      "pb": 6098,
      "Ġday": 6099,
      "gui": 6100,
      "ĠTHIS": 6101,
      "Ġatt": 6102,
      "ĠSY": 6103,
      "lier": 6104,
      "oose": 6105,
      "mpt": 6106,
      "Ġ[[": 6107,
      "ĠDet": 6108,
      "Ġsock": 6109,
      "LIED": 6110,
      "Ġeffect": 6111,
      "ifiers": 6112,
      "ands": 6113,
      "TRAN": 6114,
      "Ġuses": 6115,
      "mapping": 6116,
      "LIC": 6117,
      "Ġcomment": 6118,
      "lush": 6119,
      "wx": 6120,
      "circle": 6121,
      "redentials": 6122,
      "dx": 6123,
      "Ġneeds": 6124,
      "Ġmost": 6125,
      "DIO": 6126,
      "cker": 6127,
      "mbda": 6128,
      "Ġ(&": 6129,
      "database": 6130,
      "alar": 6131,
      "METHOD": 6132,
      "PD": 6133,
      "Ġtransition": 6134,
      "ifies": 6135,
      "duration": 6136,
      "year": 6137,
      "ĠNe": 6138,
      "speed": 6139,
      "Ġhf": 6140,
      "Drawing": 6141,
      "Collections": 6142,
      "ĠStr": 6143,
      ">\\": 6144,
      "Driver": 6145,
      "Ġshape": 6146,
      "AW": 6147,
      "512": 6148,
      "Pop": 6149,
      "Ġwarning": 6150,
      "axis": 6151,
      "warn": 6152,
      "Ġwere": 6153,
      "Ġloaded": 6154,
      "Ġavoid": 6155,
      "emon": 6156,
      "remote": 6157,
      ">:": 6158,
      "Ġregion": 6159,
      "aves": 6160,
      "utdown": 6161,
      "Ġcomplete": 6162,
      "ÑģÑĤ": 6163,
      "Day": 6164,
      "requency": 6165,
      "anger": 6166,
      "arp": 6167,
      "eee": 6168,
      "($_": 6169,
      "ĠBoolean": 6170,
      "decode": 6171,
      "direction": 6172,
      "']))": 6173,
      "ATOR": 6174,
      "ĠAT": 6175,
      "Â¡": 6176,
      "Prop": 6177,
      "ATURE": 6178,
      "pending": 6179,
      "eclipse": 6180,
      "Ġ',": 6181,
      "delta": 6182,
      "volume": 6183,
      "simple": 6184,
      "aged": 6185,
      "resp": 6186,
      "IMP": 6187,
      "__)": 6188,
      "logo": 6189,
      "ĠNS": 6190,
      "...</": 6191,
      "Ġvideo": 6192,
      "TURN": 6193,
      "ĠHel": 6194,
      "HAND": 6195,
      "Ġmeans": 6196,
      "LENGTH": 6197,
      "basic": 6198,
      ">\"": 6199,
      "Unknown": 6200,
      "timestamp": 6201,
      "pd": 6202,
      "Ùħ": 6203,
      "ĠReact": 6204,
      "IZ": 6205,
      "gi": 6206,
      "peri": 6207,
      "lookup": 6208,
      "Renderer": 6209,
      "POS": 6210,
      "Ġpower": 6211,
      "Lat": 6212,
      "ä¸į": 6213,
      "ĠBUT": 6214,
      "Ġsets": 6215,
      "RPC": 6216,
      "FRAME": 6217,
      "convert": 6218,
      "lastic": 6219,
      "ĠOUT": 6220,
      "Ġrequests": 6221,
      "ĊĠĠĠĠĠĠĠĠĠĠĠĠĠĠĠĠĠĠĠĠĠĠĠĠĠĠĠĠĠĠĠĠĠ": 6222,
      "FALSE": 6223,
      "answ": 6224,
      ":\\": 6225,
      "Ġawait": 6226,
      "Ġentries": 6227,
      "ĠTYPE": 6228,
      "Ġtypedef": 6229,
      "LOB": 6230,
      "Ġcommon": 6231,
      "ĠCPU": 6232,
      "Ġbus": 6233,
      "åĨ": 6234,
      "ĠResource": 6235,
      "Stop": 6236,
      ">)": 6237,
      "Ġmight": 6238,
      "ãĥ¼": 6239,
      "zer": 6240,
      "Ġblocks": 6241,
      "tcp": 6242,
      "Ġ(((": 6243,
      "ni": 6244,
      "columns": 6245,
      "SYMBOL": 6246,
      "GPL": 6247,
      "flat": 6248,
      "Children": 6249,
      "ĠBuild": 6250,
      "Ġappro": 6251,
      "ĠDAMAGE": 6252,
      "Ġstill": 6253,
      "multi": 6254,
      "Buf": 6255,
      "cancel": 6256,
      "Ð°Ð½": 6257,
      "Ġstorage": 6258,
      "World": 6259,
      "čĊčĊĠ": 6260,
      "Uri": 6261,
      "MAIN": 6262,
      "ĠSE": 6263,
      "Ġdep": 6264,
      "Sec": 6265,
      "touch": 6266,
      "termin": 6267,
      "folder": 6268,
      "RESULT": 6269,
      "Ġnavigation": 6270,
      "Ġ\";": 6271,
      "Ġhead": 6272,
      "Ġvisible": 6273,
      "Resources": 6274,
      "Ġverify": 6275,
      "2015": 6276,
      "ffffff": 6277,
      "ORK": 6278,
      "It": 6279,
      "ĠModel": 6280,
      "ĠBOOST": 6281,
      "ĠNAV": 6282,
      "Âµ": 6283,
      "inv": 6284,
      "ĠWIDTH": 6285,
      "DIV": 6286,
      "Ġlistener": 6287,
      "ACTION": 6288,
      "Private": 6289,
      "ĠMy": 6290,
      "eners": 6291,
      "Br": 6292,
      "Ġease": 6293,
      "Ġprop": 6294,
      "åĩ": 6295,
      "ĠCOL": 6296,
      "deprecated": 6297,
      "GA": 6298,
      "otion": 6299,
      "webpack": 6300,
      "Ġpixel": 6301,
      "izing": 6302,
      "ISC": 6303,
      "tbl": 6304,
      "PLAY": 6305,
      "------------------------------------------------": 6306,
      "Ġpipe": 6307,
      "Ġdirection": 6308,
      "ĊĊĠĠĠĠĠĠĠĠĠĠĠĠĠĠĠĠĠĠĠĠĠĠĠ": 6309,
      "Ġ\">": 6310,
      "restore": 6311,
      "ĠId": 6312,
      "Ġunique": 6313,
      "ĠĠĠĠĠĠĠĠĠĠĠĠĠĠĠĠĠĠĠĠĠĠĠĠ": 6314,
      "ĠOper": 6315,
      "Ġ'_": 6316,
      "gy": 6317,
      "ĠEVENT": 6318,
      "Ġcharacters": 6319,
      "ane": 6320,
      "ãĢģ": 6321,
      "ĠPR": 6322,
      "maps": 6323,
      "Ġselection": 6324,
      "Ġexternal": 6325,
      "ĠPh": 6326,
      "aper": 6327,
      "refs": 6328,
      "erved": 6329,
      "failed": 6330,
      "_)": 6331,
      "ĠProject": 6332,
      "Ġlow": 6333,
      "original": 6334,
      "chor": 6335,
      "pixel": 6336,
      "Ġtimer": 6337,
      "riend": 6338,
      "pdf": 6339,
      "Ġyet": 6340,
      "Ġmeta": 6341,
      "Program": 6342,
      "Ġmerge": 6343,
      "Ġexecute": 6344,
      "RF": 6345,
      "pose": 6346,
      "002": 6347,
      "Ġreason": 6348,
      "Ġcb": 6349,
      "vertical": 6350,
      "getId": 6351,
      "Enable": 6352,
      "signal": 6353,
      "links": 6354,
      "Ã¶": 6355,
      "junit": 6356,
      "Ġforce": 6357,
      "DM": 6358,
      "ĊĉĠĠĠĠĠĠĠĠĠĠĠ": 6359,
      "ression": 6360,
      "REQUEST": 6361,
      "DOM": 6362,
      "ĠTABLE": 6363,
      "accept": 6364,
      "Ġcluster": 6365,
      "iform": 6366,
      "share": 6367,
      "ĠCal": 6368,
      "edge": 6369,
      "peg": 6370,
      "Ġpair": 6371,
      "SSION": 6372,
      "stderr": 6373,
      "Ġcalls": 6374,
      "attrs": 6375,
      "Ġdiff": 6376,
      "created": 6377,
      "2014": 6378,
      "_);": 6379,
      "Ġ##": 6380,
      "Ġrows": 6381,
      "ATED": 6382,
      "Ġspecify": 6383,
      "selection": 6384,
      "references": 6385,
      "Ġclick": 6386,
      "large": 6387,
      "ĉĉĉĉĉ": 6388,
      "åĮ": 6389,
      "Cursor": 6390,
      "{$": 6391,
      "Idx": 6392,
      "Ġident": 6393,
      "leton": 6394,
      "Ã¼": 6395,
      "Sql": 6396,
      "issues": 6397,
      "ĠBlock": 6398,
      "trim": 6399,
      "Gen": 6400,
      "Ġ21": 6401,
      "optional": 6402,
      "Ġgrid": 6403,
      "Email": 6404,
      "ral": 6405,
      "Pa": 6406,
      "Ġusers": 6407,
      "Ġsec": 6408,
      "origin": 6409,
      "><!--": 6410,
      "Ġprotocol": 6411,
      "elements": 6412,
      "ĠService": 6413,
      "oard": 6414,
      "ANT": 6415,
      "ĠSpec": 6416,
      "oice": 6417,
      "resolve": 6418,
      "Ġhold": 6419,
      "avai": 6420,
      "Ġ23": 6421,
      "stmt": 6422,
      "ĠTable": 6423,
      "ational": 6424,
      "Export": 6425,
      "Ġchain": 6426,
      "Append": 6427,
      "Decl": 6428,
      "Ġcontents": 6429,
      "BUILD": 6430,
      "watch": 6431,
      "python": 6432,
      "Ø¯": 6433,
      "uuid": 6434,
      "directory": 6435,
      "ĠCHE": 6436,
      "FN": 6437,
      "ĠNE": 6438,
      "xt": 6439,
      "mun": 6440,
      "assertTrue": 6441,
      "LAB": 6442,
      "rase": 6443,
      "\"\\": 6444,
      "'):": 6445,
      "Ġ_,": 6446,
      "formed": 6447,
      "Ġgu": 6448,
      "ilities": 6449,
      "forms": 6450,
      "ĠAV": 6451,
      "ĠIMPLIED": 6452,
      "éĩ": 6453,
      "Allow": 6454,
      "DOWN": 6455,
      "NODE": 6456,
      "Ġcls": 6457,
      "Ċĉĉĉĉĉĉĉĉĉĉĉ": 6458,
      "Pass": 6459,
      "clus": 6460,
      "spring": 6461,
      "!=": 6462,
      "tooltip": 6463,
      "$$": 6464,
      "Ġchildren": 6465,
      "hl": 6466,
      "Ġ\");": 6467,
      "mitive": 6468,
      "Look": 6469,
      "ront": 6470,
      "miss": 6471,
      "Assign": 6472,
      "Ġatom": 6473,
      "cdn": 6474,
      "Ġspecial": 6475,
      "servable": 6476,
      "fly": 6477,
      "See": 6478,
      "Ġcard": 6479,
      "acc": 6480,
      "month": 6481,
      "mise": 6482,
      "Audio": 6483,
      "ĠHAL": 6484,
      "Ġencoding": 6485,
      "InputStream": 6486,
      "calendar": 6487,
      "ĠAction": 6488,
      "ada": 6489,
      "Âĥ": 6490,
      "Services": 6491,
      "Real": 6492,
      "ĠPath": 6493,
      "uf": 6494,
      "animation": 6495,
      "disk": 6496,
      "transaction": 6497,
      "Ġselector": 6498,
      "pv": 6499,
      "Ġpool": 6500,
      "Counter": 6501,
      "Ġpages": 6502,
      "arguments": 6503,
      "mid": 6504,
      "Ġcorrespon": 6505,
      "Fn": 6506,
      "Ñĩ": 6507,
      "atar": 6508,
      "obile": 6509,
      "ĠSets": 6510,
      "zy": 6511,
      "seconds": 6512,
      "--;": 6513,
      "Pixel": 6514,
      "Insert": 6515,
      "Direct": 6516,
      "setting": 6517,
      "Required": 6518,
      "Ġsd": 6519,
      "(%": 6520,
      "wm": 6521,
      "Gui": 6522,
      "Ġpa": 6523,
      "Ġproxy": 6524,
      "upt": 6525,
      "CONTROL": 6526,
      "USED": 6527,
      "Ġdrop": 6528,
      "Art": 6529,
      "Cluster": 6530,
      "TestCase": 6531,
      "tests": 6532,
      "hand": 6533,
      "Wait": 6534,
      "flu": 6535,
      "å¾": 6536,
      "ĠArg": 6537,
      "quare": 6538,
      "Ġhapp": 6539,
      "Ġvec": 6540,
      "kwargs": 6541,
      "Ġremote": 6542,
      "ĠDescription": 6543,
      "PTR": 6544,
      "ĠUI": 6545,
      "Ġmapping": 6546,
      "reply": 6547,
      "Ġtake": 6548,
      "Axis": 6549,
      "ĠFT": 6550,
      "fil": 6551,
      "Ġreadonly": 6552,
      "Ġknow": 6553,
      "DED": 6554,
      "dig": 6555,
      "reader": 6556,
      "Endpoint": 6557,
      "duction": 6558,
      "Install": 6559,
      "Ġ\"'": 6560,
      "Ġgame": 6561,
      "cli": 6562,
      "ĠCHECK": 6563,
      "æ³": 6564,
      "æĿ": 6565,
      "resize": 6566,
      "decl": 6567,
      "equiv": 6568,
      "prepare": 6569,
      "awn": 6570,
      "Ġcounter": 6571,
      "bon": 6572,
      "ENCE": 6573,
      "BUF": 6574,
      "pret": 6575,
      "========================================================================": 6576,
      "BC": 6577,
      "ĠNet": 6578,
      "Points": 6579,
      "PROC": 6580,
      "TARGET": 6581,
      "uted": 6582,
      "Binary": 6583,
      "mag": 6584,
      "Ty": 6585,
      "ĊĠĠĠĠĊĠĠĠĠ": 6586,
      "Ġ102": 6587,
      "Ġensure": 6588,
      "Flow": 6589,
      "trieve": 6590,
      "Ġspeed": 6591,
      "Literal": 6592,
      "Copyright": 6593,
      "ĠLIMITED": 6594,
      "Rows": 6595,
      "Ġrect": 6596,
      "ĠEnable": 6597,
      "Ġunless": 6598,
      "pdata": 6599,
      "vendor": 6600,
      "ĠassertThat": 6601,
      "EventListener": 6602,
      "Join": 6603,
      "pkg": 6604,
      "Headers": 6605,
      "assembly": 6606,
      "ker": 6607,
      "Su": 6608,
      "ĠPre": 6609,
      "tle": 6610,
      "DV": 6611,
      "vlet": 6612,
      "Ġclasses": 6613,
      "Ġinitialize": 6614,
      "score": 6615,
      "ĠDocument": 6616,
      "illi": 6617,
      "Ġstored": 6618,
      "çĽ": 6619,
      "getInstance": 6620,
      "(\\": 6621,
      "STRU": 6622,
      "Methods": 6623,
      "//!": 6624,
      "Reset": 6625,
      "INDEX": 6626,
      "ĠSC": 6627,
      "Ġdes": 6628,
      "Ġfixed": 6629,
      "IOException": 6630,
      "Ġschema": 6631,
      "Ġhel": 6632,
      "Ġdelay": 6633,
      "DP": 6634,
      "Ġ'</": 6635,
      "ĠOutput": 6636,
      "ĠCan": 6637,
      "sass": 6638,
      "variant": 6639,
      "interval": 6640,
      "sim": 6641,
      "bra": 6642,
      "intel": 6643,
      "exist": 6644,
      "Ġcolumns": 6645,
      "ĠNAVBAR": 6646,
      "Cast": 6647,
      "ï¼ļ": 6648,
      "sq": 6649,
      "ĊĉĉĉĊĉĉ": 6650,
      "canvas": 6651,
      "Ġ>>>": 6652,
      "Static": 6653,
      "tempt": 6654,
      "Enter": 6655,
      "Plan": 6656,
      "messages": 6657,
      "Symfony": 6658,
      "ĠLoad": 6659,
      "ateway": 6660,
      "blocks": 6661,
      "Constructor": 6662,
      "Ġabstract": 6663,
      "anchor": 6664,
      "maining": 6665,
      "esh": 6666,
      "snd": 6667,
      "ĠUSA": 6668,
      "ourse": 6669,
      "nail": 6670,
      "dw": 6671,
      "batch": 6672,
      "udo": 6673,
      "........": 6674,
      "ico": 6675,
      "Ġcla": 6676,
      "ght": 6677,
      "Ġinstruction": 6678,
      "»¿": 6679,
      "program": 6680,
      "Ġdistribution": 6681,
      "selector": 6682,
      "ĠCall": 6683,
      "orp": 6684,
      "AMP": 6685,
      "locale": 6686,
      "cessary": 6687,
      "Ġgot": 6688,
      "Fragment": 6689,
      "Enumer": 6690,
      "Ġsignal": 6691,
      "Contact": 6692,
      "words": 6693,
      "methods": 6694,
      "urs": 6695,
      "Ġ'-": 6696,
      "disp": 6697,
      "UBLIC": 6698,
      "extension": 6699,
      "present": 6700,
      "===": 6701,
      "ipher": 6702,
      "CREATE": 6703,
      "oment": 6704,
      "Ġmany": 6705,
      "RED": 6706,
      "eries": 6707,
      "Example": 6708,
      "ĠState": 6709,
      "Ġfs": 6710,
      "ï»¿": 6711,
      "entries": 6712,
      "ĠallClasses": 6713,
      "swing": 6714,
      "eric": 6715,
      "isters": 6716,
      "(((": 6717,
      "ardware": 6718,
      "Ġcr": 6719,
      "}},": 6720,
      "ĠallClassesLink": 6721,
      "translate": 6722,
      "æŀ": 6723,
      "Ġprogress": 6724,
      "Basic": 6725,
      "OPTION": 6726,
      "Ġmatches": 6727,
      "OC": 6728,
      ">../": 6729,
      "----------": 6730,
      "High": 6731,
      "Ġfailure": 6732,
      "Focus": 6733,
      "Alloc": 6734,
      "ĠDATA": 6735,
      "generate": 6736,
      "Chain": 6737,
      "Ġpush": 6738,
      "RM": 6739,
      "ural": 6740,
      "ĠRedistribut": 6741,
      "plot": 6742,
      "ĊĠĠĠĠĠĠĠĠĠĠĠĠĠĠĠĠĠĠĠĠĠĠĠĠĠĠĠĠĠĠĠĠĠĠ": 6743,
      "Ġprofile": 6744,
      "Ġmut": 6745,
      "Ġbad": 6746,
      "Ġ..": 6747,
      "Framework": 6748,
      "period": 6749,
      "čĊčĊč": 6750,
      "GIN": 6751,
      "DY": 6752,
      "ä¼": 6753,
      "ARRAY": 6754,
      "Users": 6755,
      "ä»¥": 6756,
      "Ġdict": 6757,
      "FileName": 6758,
      "mmutable": 6759,
      "800": 6760,
      "provider": 6761,
      "Ġautomatic": 6762,
      "licate": 6763,
      "ĠBE": 6764,
      "ĠColor": 6765,
      "111": 6766,
      "Ġemit": 6767,
      "IME": 6768,
      "ORTED": 6769,
      "arsh": 6770,
      "Own": 6771,
      "Ġ``": 6772,
      "á»": 6773,
      "HOST": 6774,
      "vi": 6775,
      "ters": 6776,
      "Ġtags": 6777,
      "FUNC": 6778,
      "ĠClient": 6779,
      "ever": 6780,
      "FFFFFF": 6781,
      "Ġ\"_": 6782,
      "fire": 6783,
      "Ġvertical": 6784,
      "ENC": 6785,
      "Release": 6786,
      "('<": 6787,
      "ArgumentException": 6788,
      "Ġsplit": 6789,
      "ifest": 6790,
      "Ġlinear": 6791,
      "Ġcellpadding": 6792,
      "Ġalpha": 6793,
      "Members": 6794,
      "Lib": 6795,
      "urnal": 6796,
      "Ġowner": 6797,
      "rout": 6798,
      "ĠEd": 6799,
      "osite": 6800,
      "hc": 6801,
      "ROOT": 6802,
      "æİ": 6803,
      "seg": 6804,
      "blob": 6805,
      "Ġcellspacing": 6806,
      "rtl": 6807,
      "Card": 6808,
      "emit": 6809,
      "mux": 6810,
      "è¦": 6811,
      "decoration": 6812,
      "Ġer": 6813,
      "![": 6814,
      "Ġleast": 6815,
      "veloper": 6816,
      "+\"": 6817,
      "alias": 6818,
      "HD": 6819,
      "(.": 6820,
      "ios": 6821,
      "tection": 6822,
      "Bool": 6823,
      "icks": 6824,
      "Make": 6825,
      "apos": 6826,
      "cing": 6827,
      "PLL": 6828,
      "Ġcp": 6829,
      "ĠCollection": 6830,
      "ĠLIABILITY": 6831,
      "Raw": 6832,
      "ĠĠĠĠĠĠĠĠĠĠĠĠĠĠĠĠĠĠĠĠĠĠĠĠĠ": 6833,
      "Ret": 6834,
      "Ġfolder": 6835,
      "ĠQgs": 6836,
      "Cla": 6837,
      "2011": 6838,
      "Background": 6839,
      "Ġbg": 6840,
      "Ġskb": 6841,
      "Edge": 6842,
      "eh": 6843,
      "ĠPage": 6844,
      "Animation": 6845,
      "ario": 6846,
      "ĠVer": 6847,
      "ĠElement": 6848,
      "zon": 6849,
      "lider": 6850,
      "ĠOP": 6851,
      "RGB": 6852,
      "ĠGroup": 6853,
      "ĠCOPYRIGHT": 6854,
      "ç½": 6855,
      "DIRECT": 6856,
      "SPI": 6857,
      "TF": 6858,
      "configuration": 6859,
      "ĠÐ²": 6860,
      "overview": 6861,
      "asy": 6862,
      "ä»¶": 6863,
      "Ġstandard": 6864,
      "{\\": 6865,
      "fully": 6866,
      "ours": 6867,
      "+=": 6868,
      "Sm": 6869,
      "Objects": 6870,
      "amaz": 6871,
      "lio": 6872,
      "Ġeditor": 6873,
      "esome": 6874,
      "expand": 6875,
      "Power": 6876,
      "Ġsync": 6877,
      "Ġ{},": 6878,
      "Ġaxis": 6879,
      "Span": 6880,
      "Ġĉ": 6881,
      "ĠVALIGN": 6882,
      "Connect": 6883,
      "Ġdid": 6884,
      "Ġreader": 6885,
      "Ð¾Ð²": 6886,
      "like": 6887,
      "INPUT": 6888,
      "rf": 6889,
      "Ġresources": 6890,
      "sleep": 6891,
      "features": 6892,
      "2016": 6893,
      "undef": 6894,
      "Ġ{%": 6895,
      "AUTH": 6896,
      ";;": 6897,
      "ĠWindows": 6898,
      "ĠSome": 6899,
      "strings": 6900,
      "ited": 6901,
      "navigation": 6902,
      "Binding": 6903,
      "patch": 6904,
      "ĠMO": 6905,
      "Ġfprintf": 6906,
      "Drop": 6907,
      "BA": 6908,
      "apis": 6909,
      "ctr": 6910,
      "hf": 6911,
      "Ġvalidate": 6912,
      "roadcast": 6913,
      "Ġdescriptor": 6914,
      "Ġpur": 6915,
      "reet": 6916,
      "Ġ?></": 6917,
      "ĠExt": 6918,
      "ĊĉĉĉĠĠ": 6919,
      "ĠProcess": 6920,
      "Ġ2013": 6921,
      "mult": 6922,
      "Ġrout": 6923,
      "Ġcfg": 6924,
      "æĸĩ": 6925,
      "ĊĊĠĠĠĠĠĠĠĠ": 6926,
      "dn": 6927,
      "å½": 6928,
      "Ġ&#": 6929,
      "Summary": 6930,
      "Public": 6931,
      "Note": 6932,
      "Login": 6933,
      "Ġts": 6934,
      "MR": 6935,
      "SERVER": 6936,
      "Ġlower": 6937,
      "Ġkernel": 6938,
      "'\\": 6939,
      "Ġaudio": 6940,
      "2000": 6941,
      "123": 6942,
      "Native": 6943,
      "Term": 6944,
      "ĠSelect": 6945,
      "sched": 6946,
      "Delegate": 6947,
      "Converter": 6948,
      "ĠSw": 6949,
      "likely": 6950,
      "Ġvolume": 6951,
      "CG": 6952,
      "Vec": 6953,
      "Ġque": 6954,
      "UInt": 6955,
      "ording": 6956,
      "Inv": 6957,
      "gon": 6958,
      "dash": 6959,
      "ips": 6960,
      "Ġmodels": 6961,
      "Shared": 6962,
      "labels": 6963,
      "Ġisset": 6964,
      "fra": 6965,
      "cookie": 6966,
      "Ins": 6967,
      "dark": 6968,
      "Ġincluding": 6969,
      "Face": 6970,
      "Information": 6971,
      "SSAGE": 6972,
      "amazon": 6973,
      "ĊĠĠĠĠĠĠĠĠĠĠĠĠĠĠĠĠĠĠĠĠĠĠĠĠĠĠĠĠĠĠĠĠĠĠĠĠĠĠĠĠĠĠĠĠĠĠĠĠĠĠĠ": 6974,
      "spell": 6975,
      "filters": 6976,
      "copyright": 6977,
      "ĠCommand": 6978,
      "ĠChange": 6979,
      "frames": 6980,
      "å®ļ": 6981,
      "II": 6982,
      "ĠVar": 6983,
      "repare": 6984,
      "wake": 6985,
      "åı¯": 6986,
      "Groups": 6987,
      "Ġtimestamp": 6988,
      "WER": 6989,
      "FG": 6990,
      "ana": 6991,
      "Ġenvironment": 6992,
      "ä¿": 6993,
      "NEL": 6994,
      "600": 6995,
      "some": 6996,
      "APP": 6997,
      "Ġdist": 6998,
      "ifications": 6999,
      "CODEC": 7000,
      "constant": 7001,
      "Messages": 7002,
      "Ġrate": 7003,
      "libs": 7004,
      "TOM": 7005,
      "pkt": 7006,
      "Ctrl": 7007,
      "]</": 7008,
      "Ġ--></": 7009,
      "ĠControl": 7010,
      "errno": 7011,
      "Cl": 7012,
      "eds": 7013,
      "Ġdelta": 7014,
      "Errorf": 7015,
      "Holder": 7016,
      "VT": 7017,
      "rpc": 7018,
      "toolbar": 7019,
      "rain": 7020,
      "loading": 7021,
      "sem": 7022,
      "Ġface": 7023,
      "GROUP": 7024,
      "writel": 7025,
      "MMARY": 7026,
      "ĠAUT": 7027,
      "Ġanimation": 7028,
      "Ġmouse": 7029,
      "ĠFrame": 7030,
      "DTD": 7031,
      "ulk": 7032,
      "Ignore": 7033,
      "Ġms": 7034,
      "Operator": 7035,
      "matches": 7036,
      ")}": 7037,
      "Ġenter": 7038,
      "GLE": 7039,
      "functions": 7040,
      "vp": 7041,
      "ragma": 7042,
      "Ġyy": 7043,
      "Book": 7044,
      "Ð¿": 7045,
      "Ġ/**<": 7046,
      "\\-": 7047,
      "drag": 7048,
      "Ġ2017": 7049,
      "Ġusage": 7050,
      "Ġexplicit": 7051,
      "createElement": 7052,
      "Ġdi": 7053,
      "oser": 7054,
      "reserve": 7055,
      "ROW": 7056,
      "serial": 7057,
      "jax": 7058,
      "PHY": 7059,
      "Topic": 7060,
      "SERV": 7061,
      "lies": 7062,
      "danger": 7063,
      "ryption": 7064,
      "ĊĠĠĠĠĠĠĠĠĠĠĠĠĠĠĠĠĠĠĠĠĠĠĠĠĠĠĠĠĠĠĠĠĠĠĠĠ": 7065,
      "Border": 7066,
      "čĊĠĠĠĠĠĠĠĠĠĠĠĠ": 7067,
      "Geometry": 7068,
      "ordinate": 7069,
      "Random": 7070,
      "NON": 7071,
      "ĠResult": 7072,
      "lim": 7073,
      "scripts": 7074,
      "SN": 7075,
      "Ġfactory": 7076,
      "lv": 7077,
      "subject": 7078,
      "Throw": 7079,
      "front": 7080,
      "Ġfd": 7081,
      "insn": 7082,
      "Ġetc": 7083,
      "wb": 7084,
      "à²": 7085,
      "sid": 7086,
      "ĠADC": 7087,
      "Ġadmin": 7088,
      "uggest": 7089,
      "machine": 7090,
      "Ġarea": 7091,
      "ho": 7092,
      "uce": 7093,
      "nof": 7094,
      "Ġ'''": 7095,
      "Usage": 7096,
      "band": 7097,
      "ĊĉĉĠĠ": 7098,
      "phys": 7099,
      "Ġprops": 7100,
      "compute": 7101,
      "Wallet": 7102,
      "Zone": 7103,
      "iltin": 7104,
      "Ġwell": 7105,
      "forEach": 7106,
      "Notification": 7107,
      "generic": 7108,
      "Ġaria": 7109,
      "Gu": 7110,
      "Ġsepar": 7111,
      "UNK": 7112,
      "ĠInst": 7113,
      "ĠSTR": 7114,
      "Dev": 7115,
      "Generated": 7116,
      "allel": 7117,
      "des": 7118,
      "Ġnative": 7119,
      "numerus": 7120,
      "more": 7121,
      "numerusform": 7122,
      "sym": 7123,
      "Ġà¦": 7124,
      "Locale": 7125,
      "ina": 7126,
      "]),": 7127,
      "pped": 7128,
      "Ap": 7129,
      "ĠPrint": 7130,
      "Complete": 7131,
      "strcmp": 7132,
      "aving": 7133,
      "ti": 7134,
      "BT": 7135,
      ",,": 7136,
      "ITS": 7137,
      "ĠSend": 7138,
      "Segment": 7139,
      "schedule": 7140,
      "127": 7141,
      "twitter": 7142,
      "ively": 7143,
      "/.": 7144,
      "sha": 7145,
      "ĠLink": 7146,
      "LOT": 7147,
      "available": 7148,
      "ĠØ": 7149,
      "Rev": 7150,
      "Columns": 7151,
      "descriptor": 7152,
      "ĠAbstract": 7153,
      "price": 7154,
      "HW": 7155,
      "Del": 7156,
      "defer": 7157,
      "Ġedge": 7158,
      "ILED": 7159,
      "IFY": 7160,
      "Ġsprintf": 7161,
      "Tags": 7162,
      "ĠIllegal": 7163,
      "KERNEL": 7164,
      "Ġidentifier": 7165,
      "amount": 7166,
      "Errors": 7167,
      "$.": 7168,
      "getString": 7169,
      "initial": 7170,
      "LOBAL": 7171,
      "Ġpayload": 7172,
      "star": 7173,
      "ĠCA": 7174,
      "lapsed": 7175,
      "swarm": 7176,
      "REAM": 7177,
      "andra": 7178,
      "ĠFind": 7179,
      "Coord": 7180,
      "Annotation": 7181,
      "Ġ_.": 7182,
      "Ġrotate": 7183,
      "`)": 7184,
      "library": 7185,
      "'},": 7186,
      "voice": 7187,
      "ĠBuffer": 7188,
      "è¡Į": 7189,
      "Ġrequested": 7190,
      "striction": 7191,
      "gems": 7192,
      "Î±": 7193,
      "Ġzone": 7194,
      "ĠOther": 7195,
      "under": 7196,
      "Remote": 7197,
      "ĠAc": 7198,
      "ike": 7199,
      "Ġshared": 7200,
      "usage": 7201,
      "tax": 7202,
      ".\"\"\"": 7203,
      "Ġsupp": 7204,
      "ads": 7205,
      "LED": 7206,
      "datetime": 7207,
      "Ġspell": 7208,
      "nx": 7209,
      "ä¸º": 7210,
      "ctor": 7211,
      "Ġcref": 7212,
      "Ġoperations": 7213,
      "kfree": 7214,
      "PG": 7215,
      "Setting": 7216,
      "ĠServer": 7217,
      "payload": 7218,
      "Drag": 7219,
      "Ġmo": 7220,
      "MenuItem": 7221,
      "Ġscan": 7222,
      "MAN": 7223,
      "ĠOptional": 7224,
      "ĠAddress": 7225,
      "Ġstrlen": 7226,
      "Ġslot": 7227,
      "DEP": 7228,
      "ĠÑģ": 7229,
      "Processor": 7230,
      "peer": 7231,
      "Ġ'./": 7232,
      "adio": 7233,
      "IGH": 7234,
      "segment": 7235,
      "Ġmanager": 7236,
      "ĠWork": 7237,
      "erived": 7238,
      "ĊĊĊĠ": 7239,
      "Quest": 7240,
      "pic": 7241,
      "Place": 7242,
      "WORK": 7243,
      "serialize": 7244,
      "collect": 7245,
      "Ġcommands": 7246,
      "overlay": 7247,
      "compile": 7248,
      "wildcard": 7249,
      "RUN": 7250,
      "lua": 7251,
      "ÃĦ": 7252,
      "ĠGET": 7253,
      "Ñĸ": 7254,
      "setText": 7255,
      "PROTO": 7256,
      "Ġdirectly": 7257,
      "mobile": 7258,
      "ĠByte": 7259,
      "lots": 7260,
      "verify": 7261,
      "ĠRT": 7262,
      "Ġsig": 7263,
      "Ġseconds": 7264,
      "Ġ31": 7265,
      "Ä±": 7266,
      "CONNE": 7267,
      "æĶ": 7268,
      "ung": 7269,
      "ĠQuery": 7270,
      "åĢ": 7271,
      "ĠSp": 7272,
      "å¸": 7273,
      "history": 7274,
      "when": 7275,
      "Validator": 7276,
      "Ġdescribe": 7277,
      "ventory": 7278,
      "Ġ(__": 7279,
      ".*;": 7280,
      "uppress": 7281,
      "NotFound": 7282,
      "Ġseq": 7283,
      "Ġ(`": 7284,
      "ĠDOM": 7285,
      "malloc": 7286,
      "Ġdynamic": 7287,
      "ilation": 7288,
      "stable": 7289,
      "Batch": 7290,
      "ino": 7291,
      "ousel": 7292,
      "ĠSUMMARY": 7293,
      "className": 7294,
      ">\";": 7295,
      "Ġ'$": 7296,
      "*(": 7297,
      "ases": 7298,
      "RD": 7299,
      "=\"'": 7300,
      "Ġ28": 7301,
      "team": 7302,
      "Console": 7303,
      "qt": 7304,
      "memcpy": 7305,
      "topic": 7306,
      "Â»": 7307,
      "Ġsaved": 7308,
      "Ġunknown": 7309,
      ")+": 7310,
      "Ġarr": 7311,
      "assandra": 7312,
      "ĠDec": 7313,
      "*-": 7314,
      "Ġcoq": 7315,
      "Ġconstant": 7316,
      ";|": 7317,
      "ula": 7318,
      "Ġpl": 7319,
      "hp": 7320,
      "čĊčĊĉĉ": 7321,
      "è§": 7322,
      "Home": 7323,
      "ued": 7324,
      "%%%%%%%%": 7325,
      "abilities": 7326,
      "referred": 7327,
      "Platform": 7328,
      "Prev": 7329,
      "overflow": 7330,
      "Ġmaterial": 7331,
      "Ġresp": 7332,
      "wildfly": 7333,
      "QUAL": 7334,
      "509": 7335,
      "cert": 7336,
      "LOAT": 7337,
      "times": 7338,
      "ierarch": 7339,
      "ordinates": 7340,
      "125": 7341,
      "MAKE": 7342,
      "=\"../../../../../../../": 7343,
      "snap": 7344,
      ";&#": 7345,
      "Pod": 7346,
      "Amount": 7347,
      "Direction": 7348,
      "Rot": 7349,
      "idual": 7350,
      "Depth": 7351,
      "Ġreceive": 7352,
      "ito": 7353,
      "ĠIR": 7354,
      "Ġaut": 7355,
      "Ġbest": 7356,
      "Ġbin": 7357,
      "Ġpolicy": 7358,
      "wt": 7359,
      "fast": 7360,
      "Owner": 7361,
      "Req": 7362,
      "ĠProperty": 7363,
      "atalog": 7364,
      "å¹": 7365,
      "Ġinside": 7366,
      "Ġdialog": 7367,
      "OLDER": 7368,
      "Ġpanel": 7369,
      "XY": 7370,
      "ÃĲ": 7371,
      "springframework": 7372,
      "Bounds": 7373,
      "ĠSV": 7374,
      "ĠMan": 7375,
      "Ġprovider": 7376,
      "æĹ¶": 7377,
      ",%": 7378,
      "iness": 7379,
      ">;": 7380,
      "Ġdestination": 7381,
      "mx": 7382,
      "Ġtsd": 7383,
      "SOC": 7384,
      "ĠSTART": 7385,
      "IA": 7386,
      "Compar": 7387,
      "}\",": 7388,
      "Hand": 7389,
      "awt": 7390,
      "SRC": 7391,
      "mmc": 7392,
      "ITEM": 7393,
      "ĠTIM": 7394,
      "ĠExample": 7395,
      "ĥ½": 7396,
      "Validation": 7397,
      "persist": 7398,
      "SPACE": 7399,
      "Ġsegment": 7400,
      "Ġextract": 7401,
      "that": 7402,
      "expression": 7403,
      "cg": 7404,
      "pagination": 7405,
      "ĠSPELL": 7406,
      "ALLOC": 7407,
      "Ġmissing": 7408,
      "bh": 7409,
      "ĠÐ½": 7410,
      "Ġendpoint": 7411,
      "ĠSearch": 7412,
      "chat": 7413,
      "Environment": 7414,
      "Cancel": 7415,
      "æį": 7416,
      "Ġutil": 7417,
      "Ġruntime": 7418,
      "2013": 7419,
      "aver": 7420,
      "íķ": 7421,
      "embed": 7422,
      "Ġmodified": 7423,
      "Shader": 7424,
      "ĠOnly": 7425,
      "django": 7426,
      "PRESS": 7427,
      "Ġcommit": 7428,
      "Contents": 7429,
      "OPEN": 7430,
      "Ġblack": 7431,
      "CTOR": 7432,
      "NR": 7433,
      "Ġconstraint": 7434,
      "Ġrt": 7435,
      "ĠSimple": 7436,
      "beta": 7437,
      "Ġiterator": 7438,
      "lying": 7439,
      "×ķ": 7440,
      "previous": 7441,
      "sent": 7442,
      "CU": 7443,
      "Ġpriv": 7444,
      "Ġmatching": 7445,
      "Ġfi": 7446,
      "refresh": 7447,
      "processor": 7448,
      "eff": 7449,
      "Delay": 7450,
      "Pane": 7451,
      "=-=-": 7452,
      "Â·": 7453,
      "PRINT": 7454,
      "å·": 7455,
      "Ġterm": 7456,
      "IENT": 7457,
      "Ġ26": 7458,
      "marsh": 7459,
      "ĠUnit": 7460,
      "Frames": 7461,
      "ĠThread": 7462,
      "Ġdat": 7463,
      "ĠConfiguration": 7464,
      "ĠĠĠĠĠĠĠĠĠĠĠĠĠĠĠĠĠĠĠĠĠĠĠĠĠĠĠ": 7465,
      "ĠDEBUG": 7466,
      "++++": 7467,
      "Syntax": 7468,
      "èĢ": 7469,
      "NL": 7470,
      "Src": 7471,
      "ooter": 7472,
      "ENOMEM": 7473,
      "channels": 7474,
      "Ġpin": 7475,
      "8000": 7476,
      "mv": 7477,
      "moves": 7478,
      "æĢ": 7479,
      "tar": 7480,
      "redirect": 7481,
      "ĊĠĠĠĠĠĠĠĠĠĠĠĠĠĠĠĠĠĠĠĠĠĠĠĠĠĠĠĠĠĠĠĠĠĠĠĠĠ": 7482,
      "(\".": 7483,
      "memItem": 7484,
      "repo": 7485,
      "Ġthose": 7486,
      "wiki": 7487,
      "\"}": 7488,
      "Ġinstalled": 7489,
      "nc": 7490,
      "ACTIVE": 7491,
      "ea": 7492,
      "unknown": 7493,
      "Ġlat": 7494,
      "got": 7495,
      "answer": 7496,
      "addClass": 7497,
      "hook": 7498,
      "SIGN": 7499,
      "ĠCL": 7500,
      "olved": 7501,
      "eded": 7502,
      "ĠCSS": 7503,
      "Ġflex": 7504,
      "TT": 7505,
      "Ġtrace": 7506,
      "Ġ2011": 7507,
      ")',": 7508,
      "world": 7509,
      "UA": 7510,
      "Ġprimary": 7511,
      "IBUT": 7512,
      "Bus": 7513,
      "Slot": 7514,
      "ĠAssembly": 7515,
      "Ġroute": 7516,
      "OUTPUT": 7517,
      "Î¿": 7518,
      "nv": 7519,
      "actual": 7520,
      "pcm": 7521,
      "REA": 7522,
      "Ġnothing": 7523,
      "ĠMax": 7524,
      "čĊĉčĊ": 7525,
      "Ġstats": 7526,
      "ĠChar": 7527,
      "Ġ128": 7528,
      "swap": 7529,
      "ifact": 7530,
      "Ġ27": 7531,
      "/>.": 7532,
      "ctree": 7533,
      "viewport": 7534,
      "Implement": 7535,
      "ĠFILE": 7536,
      "Ġfetch": 7537,
      "irr": 7538,
      "ĠTEST": 7539,
      "outer": 7540,
      "Ġ2016": 7541,
      "cos": 7542,
      "alog": 7543,
      "éĹ": 7544,
      "RESET": 7545,
      "ĠFilter": 7546,
      "Ð°ÑĤ": 7547,
      "Ġlogging": 7548,
      "SEC": 7549,
      "Ġworld": 7550,
      "-----": 7551,
      "MESSAGE": 7552,
      "Ġ([": 7553,
      "GER": 7554,
      "execut": 7555,
      "lx": 7556,
      "ife": 7557,
      "Begin": 7558,
      "âĶĢ": 7559,
      "atest": 7560,
      "005": 7561,
      "ĠUtil": 7562,
      "ĠDI": 7563,
      "lette": 7564,
      "Scan": 7565,
      "ĠOp": 7566,
      "Ġallows": 7567,
      "getType": 7568,
      "udit": 7569,
      "Instruction": 7570,
      "History": 7571,
      "////////////////////////////////////////////////////////////////": 7572,
      "Now": 7573,
      ";|&": 7574,
      "localhost": 7575,
      "Google": 7576,
      "150": 7577,
      "comments": 7578,
      "argument": 7579,
      "Failure": 7580,
      "Ġnever": 7581,
      "opacity": 7582,
      "black": 7583,
      "Ġyear": 7584,
      "Ġperiod": 7585,
      "loyment": 7586,
      "Ġupper": 7587,
      "bucket": 7588,
      "ales": 7589,
      "Ġfoo": 7590,
      "nn": 7591,
      "Ġtimes": 7592,
      "Accept": 7593,
      "Ġ80": 7594,
      "ables": 7595,
      "lc": 7596,
      "Ġgtk": 7597,
      "ITLE": 7598,
      "rdev": 7599,
      "rules": 7600,
      "ARK": 7601,
      "mysql": 7602,
      "Month": 7603,
      "Resolver": 7604,
      "Ġrules": 7605,
      "Ð·": 7606,
      "ji": 7607,
      "catch": 7608,
      "2017": 7609,
      "ĠDelete": 7610,
      "ĠAC": 7611,
      "samp": 7612,
      "ĠOS": 7613,
      "HS": 7614,
      "aker": 7615,
      "Timestamp": 7616,
      "ÃĬ": 7617,
      "eno": 7618,
      "ĠPHP": 7619,
      "ĠUINT": 7620,
      "Ġ\")": 7621,
      "Ġ(!$": 7622,
      "ibling": 7623,
      "Ġliteral": 7624,
      "ĠThere": 7625,
      "Ġsynchron": 7626,
      "Ġmade": 7627,
      "Ġplan": 7628,
      "Ġappear": 7629,
      "Ġcompare": 7630,
      "æŃ": 7631,
      "GU": 7632,
      "Navigation": 7633,
      "Year": 7634,
      "Ġpending": 7635,
      "ĠReserved": 7636,
      "Ġ2012": 7637,
      "EGER": 7638,
      "pf": 7639,
      "sun": 7640,
      "dispatch": 7641,
      "-%": 7642,
      "tun": 7643,
      "regex": 7644,
      "Lookup": 7645,
      "igration": 7646,
      "Contains": 7647,
      "bum": 7648,
      "ĠContent": 7649,
      "popup": 7650,
      "('./": 7651,
      "[(": 7652,
      "Ġduration": 7653,
      "ĊĉĉĉĉĠĠĠ": 7654,
      "Cloud": 7655,
      "Partition": 7656,
      "Ġred": 7657,
      "Ġvir": 7658,
      "ArrayList": 7659,
      "responsive": 7660,
      "Controls": 7661,
      "ĠReference": 7662,
      "ĠCustom": 7663,
      "POWER": 7664,
      "ĠInterrupt": 7665,
      "Ġprevent": 7666,
      "ĊĉĉĉĠĠĠĠ": 7667,
      "Ġsummary": 7668,
      "Ġkind": 7669,
      "Ġirq": 7670,
      "::_": 7671,
      "Diff": 7672,
      "redicate": 7673,
      "pict": 7674,
      "CHANGE": 7675,
      "PCI": 7676,
      "about": 7677,
      "tim": 7678,
      "Ġplaceholder": 7679,
      "lict": 7680,
      "xl": 7681,
      "Ġtile": 7682,
      "ĠMicrosoft": 7683,
      "Ġcalling": 7684,
      "indent": 7685,
      "*>": 7686,
      "POINT": 7687,
      "ĠčĊ": 7688,
      "RST": 7689,
      "Loop": 7690,
      "Ġless": 7691,
      "Ġinterval": 7692,
      "Split": 7693,
      "istic": 7694,
      "Execution": 7695,
      "Exists": 7696,
      "sin": 7697,
      "Material": 7698,
      "encoding": 7699,
      "(['": 7700,
      "velopment": 7701,
      "×Ļ": 7702,
      "Mapper": 7703,
      "prite": 7704,
      "posts": 7705,
      "Ġesc": 7706,
      "les": 7707,
      "Poly": 7708,
      "ĠĊĉĉ": 7709,
      "cls": 7710,
      "Ġnecessary": 7711,
      "LP": 7712,
      "Ġclone": 7713,
      "oston": 7714,
      "NA": 7715,
      "ĠGO": 7716,
      "lev": 7717,
      "Ġcategory": 7718,
      "Graphics": 7719,
      "Ġusername": 7720,
      "HEADER": 7721,
      "\">&#": 7722,
      "native": 7723,
      "Ġdistance": 7724,
      "Ġautomatically": 7725,
      "REC": 7726,
      "ĠComponent": 7727,
      "Ġrequires": 7728,
      "correct": 7729,
      "Bucket": 7730,
      "Fixed": 7731,
      "ĠLong": 7732,
      "controls": 7733,
      "rand": 7734,
      "eth": 7735,
      "sess": 7736,
      "Arr": 7737,
      "ĠIter": 7738,
      "udent": 7739,
      "awesome": 7740,
      "Disp": 7741,
      "separator": 7742,
      "Separator": 7743,
      "ĠLocal": 7744,
      "mf": 7745,
      "Ġ\"[": 7746,
      "Ġ\"+": 7747,
      "urb": 7748,
      "\">(": 7749,
      "ĠParse": 7750,
      "Ġmonth": 7751,
      "Ġengine": 7752,
      "Strategy": 7753,
      "PREFIX": 7754,
      "ENTER": 7755,
      "sta": 7756,
      "Chart": 7757,
      "VIE": 7758,
      "Ġpartition": 7759,
      "react": 7760,
      "ĠHAVE": 7761,
      "ivers": 7762,
      "Servlet": 7763,
      "AU": 7764,
      "Ġorigin": 7765,
      "hex": 7766,
      "TableRow": 7767,
      "ARM": 7768,
      "_[": 7769,
      "cred": 7770,
      "ĠResponse": 7771,
      "UNIT": 7772,
      "themes": 7773,
      "ĠContext": 7774,
      "ffers": 7775,
      "Ġcopies": 7776,
      ")-": 7777,
      "\\_": 7778,
      "------": 7779,
      "ĠPM": 7780,
      "CONT": 7781,
      "widgets": 7782,
      "Encoding": 7783,
      "Ġ51": 7784,
      "ÐµÑĢ": 7785,
      "ĠDouble": 7786,
      "facebook": 7787,
      "*,": 7788,
      "MSM": 7789,
      "cx": 7790,
      "Ġproblem": 7791,
      "Ġlookup": 7792,
      "Fore": 7793,
      "folio": 7794,
      "MUX": 7795,
      "QUE": 7796,
      "ĠGe": 7797,
      "Ġdie": 7798,
      "æĮ": 7799,
      "ighb": 7800,
      "alyt": 7801,
      "cha": 7802,
      "transp": 7803,
      "writer": 7804,
      "Fill": 7805,
      "allery": 7806,
      "=\"{{": 7807,
      "Peer": 7808,
      "cogn": 7809,
      "ĠPlease": 7810,
      "coped": 7811,
      "hem": 7812,
      "è¦ģ": 7813,
      "Ġproper": 7814,
      "Ġboost": 7815,
      "OLD": 7816,
      "ADDING": 7817,
      "Ġrx": 7818,
      "ridge": 7819,
      "Ġcontact": 7820,
      "lare": 7821,
      "WARNING": 7822,
      "uffix": 7823,
      "wall": 7824,
      "ĠCreates": 7825,
      "Ġ(-": 7826,
      "validation": 7827,
      "ĠSO": 7828,
      "à¹": 7829,
      "Ġ*);": 7830,
      "ĠMin": 7831,
      "Verify": 7832,
      "Ġjoin": 7833,
      "LOCAL": 7834,
      "Trigger": 7835,
      "OutputStream": 7836,
      "POL": 7837,
      "Ġresolve": 7838,
      "GLOBAL": 7839,
      "é¡": 7840,
      "../../../../": 7841,
      "Ġnavbar": 7842,
      "valuate": 7843,
      "ëĭ": 7844,
      "Deprecated": 7845,
      "Ġdt": 7846,
      "abc": 7847,
      "Ġ$('#": 7848,
      "CLE": 7849,
      "Â¥": 7850,
      "Ġgrant": 7851,
      "'].": 7852,
      "Ġ<-": 7853,
      "Ã¨": 7854,
      "DISABLE": 7855,
      "mr": 7856,
      "LEFT": 7857,
      "ĠInitialize": 7858,
      "structure": 7859,
      "RETURN": 7860,
      "ĠBoston": 7861,
      "Ġdescri": 7862,
      "Ġ```": 7863,
      "ially": 7864,
      "CORE": 7865,
      "locity": 7866,
      "plus": 7867,
      "Ġlight": 7868,
      "FAILED": 7869,
      "Ctx": 7870,
      "Ġcor": 7871,
      "'m": 7872,
      "Â¼": 7873,
      "å¯¹": 7874,
      "'d": 7875,
      "Replace": 7876,
      "1234": 7877,
      "\"/": 7878,
      "Îµ": 7879,
      "Mov": 7880,
      "BD": 7881,
      "Ġnote": 7882,
      "SYNC": 7883,
      "Ġproc": 7884,
      "/****************************************************************************": 7885,
      "}'": 7886,
      "??": 7887,
      "ĠclassName": 7888,
      "ĠLL": 7889,
      "ĠMIT": 7890,
      "textarea": 7891,
      "frag": 7892,
      "Qual": 7893,
      "Ġ\"${": 7894,
      "Tuple": 7895,
      "Virtual": 7896,
      "getMessage": 7897,
      "Ġstatement": 7898,
      "ĠâĢ": 7899,
      "ÂĤ": 7900,
      "192": 7901,
      "ĠModule": 7902,
      "Arch": 7903,
      "pragma": 7904,
      "generator": 7905,
      "craft": 7906,
      "Ġsignature": 7907,
      "Ġplease": 7908,
      "ĠInvalid": 7909,
      "interr": 7910,
      "Ġut": 7911,
      "gg": 7912,
      "ones": 7913,
      "ĊĉĉĠĠĠĠĠĠ": 7914,
      "Ġbatch": 7915,
      "vanced": 7916,
      "Arguments": 7917,
      "Ġ199": 7918,
      "thead": 7919,
      "PAD": 7920,
      "amma": 7921,
      "Ġdisk": 7922,
      "CLU": 7923,
      "Variant": 7924,
      "ran": 7925,
      "Ġdiag": 7926,
      "Go": 7927,
      "Ġdepth": 7928,
      "ioctl": 7929,
      "Ġpartic": 7930,
      "Serializer": 7931,
      "-$(": 7932,
      "ĠPort": 7933,
      "Ġcorresponding": 7934,
      "Ġ){": 7935,
      "ĠĠĠĠĠĠĠĠĠĠĠĠĠĠĠĠĠĠĠĠĠĠĠĠĠĠ": 7936,
      "Decimal": 7937,
      "ĊĉĉĉĉĠ": 7938,
      "CID": 7939,
      "gers": 7940,
      "Light": 7941,
      "Ġparsed": 7942,
      "CONF": 7943,
      "Ġcompute": 7944,
      "110": 7945,
      "')->": 7946,
      "Sum": 7947,
      "Ġev": 7948,
      "Attach": 7949,
      "Ġassume": 7950,
      "SPAC": 7951,
      "Same": 7952,
      "zure": 7953,
      "activity": 7954,
      "ĠEV": 7955,
      "eval": 7956,
      "Ġ75": 7957,
      "trfs": 7958,
      "Ġtbody": 7959,
      "Ġcar": 7960,
      "Ġmaster": 7961,
      "Vert": 7962,
      "Ġcert": 7963,
      "claimer": 7964,
      "Ġcomponents": 7965,
      "pat": 7966,
      "Ġjs": 7967,
      "ocation": 7968,
      "=[": 7969,
      "Ġmag": 7970,
      "ĠME": 7971,
      "Nullable": 7972,
      "External": 7973,
      "(\"[": 7974,
      "\\'": 7975,
      "transport": 7976,
      ".)": 7977,
      "Site": 7978,
      "oh": 7979,
      "partition": 7980,
      "ountry": 7981,
      "country": 7982,
      "Ġwriter": 7983,
      "Character": 7984,
      "ĠLay": 7985,
      "120": 7986,
      "Creature": 7987,
      "caps": 7988,
      "malink": 7989,
      "Ġsn": 7990,
      "ĠThese": 7991,
      "Ġgood": 7992,
      "NOWN": 7993,
      "interrupt": 7994,
      "upper": 7995,
      "chr": 7996,
      "reason": 7997,
      "ĠSER": 7998,
      "TOP": 7999,
      "ðŁ": 8000,
      "ĊĉĉĠĠĠĠ": 8001,
      "ISING": 8002,
      "ĠMain": 8003,
      "diag": 8004,
      "toBe": 8005,
      "VALID": 8006,
      "Big": 8007,
      "cam": 8008,
      "XXXX": 8009,
      "/</": 8010,
      "Ġtheme": 8011,
      "ĠPO": 8012,
      "Ġcases": 8013,
      "PADDING": 8014,
      "gid": 8015,
      "ĠFe": 8016,
      "%\"><": 8017,
      "ĠURI": 8018,
      "ĠLine": 8019,
      "STREAM": 8020,
      "Ġserial": 8021,
      "cout": 8022,
      "ĠINCLUDING": 8023,
      "Ġ500": 8024,
      "Ġ!(": 8025,
      "Upload": 8026,
      "Overview": 8027,
      "permission": 8028,
      "orary": 8029,
      "ĠDAMAGES": 8030,
      "FILTER": 8031,
      "Ġcover": 8032,
      "Ġchecked": 8033,
      "ENS": 8034,
      "Chunk": 8035,
      "<<<<": 8036,
      "Ġbasic": 8037,
      "flash": 8038,
      "Side": 8039,
      "aking": 8040,
      "ãĤĴ": 8041,
      "Ġaddresses": 8042,
      "Ġturn": 8043,
      "Monitor": 8044,
      "ĠPROVIDE": 8045,
      "CHANNEL": 8046,
      "Distance": 8047,
      "Library": 8048,
      "ĠPython": 8049,
      "/'": 8050,
      "Ġfragment": 8051,
      "ĠStream": 8052,
      "Ġexports": 8053,
      "ç±": 8054,
      "ond": 8055,
      "Ġdup": 8056,
      "probe": 8057,
      "lb": 8058,
      "Ġda": 8059,
      "getAttribute": 8060,
      "Ġ/></": 8061,
      "Fatal": 8062,
      "person": 8063,
      "room": 8064,
      "logging": 8065,
      "lasticsearch": 8066,
      "ĠLogger": 8067,
      "Ġ'')": 8068,
      "Ġ'@": 8069,
      "camera": 8070,
      "Transport": 8071,
      "Ġleg": 8072,
      "oi": 8073,
      "bio": 8074,
      "Ġfeatures": 8075,
      "}</": 8076,
      "#{": 8077,
      "Ġrelated": 8078,
      "CEPT": 8079,
      "Center": 8080,
      "Ã³n": 8081,
      "Mesh": 8082,
      "ä¸ĭ": 8083,
      "Ġmm": 8084,
      "Ġrespon": 8085,
      "DECL": 8086,
      "éĻ": 8087,
      "QString": 8088,
      "ĠMock": 8089,
      "coming": 8090,
      "relative": 8091,
      "Ġcc": 8092,
      "pix": 8093,
      "Kit": 8094,
      "branch": 8095,
      "iw": 8096,
      ">%": 8097,
      "Marker": 8098,
      "Ġinner": 8099,
      "ĠPUBLIC": 8100,
      "Self": 8101,
      "CACHE": 8102,
      "Ġsecurity": 8103,
      "Ġ33": 8104,
      "Scene": 8105,
      "iation": 8106,
      "ICK": 8107,
      "Ġvalidation": 8108,
      "ĠSize": 8109,
      "EMP": 8110,
      "ĊĉĉĉĉĠĠ": 8111,
      "ĠĊĠĠĠĠĠĠĠĠĠĠĠĠĠĠĠĠĠĠ": 8112,
      "WIDTH": 8113,
      "Ġlogin": 8114,
      "ĠJson": 8115,
      "Strip": 8116,
      "commons": 8117,
      "stdlib": 8118,
      "altColor": 8119,
      "Ġvisit": 8120,
      "Pipe": 8121,
      "Ã¸": 8122,
      "Ġannot": 8123,
      "rw": 8124,
      "Atom": 8125,
      "ĠMon": 8126,
      "ç¬": 8127,
      "gtk": 8128,
      "TERN": 8129,
      "ĠSto": 8130,
      "Rest": 8131,
      "ĠApplication": 8132,
      "Hub": 8133,
      "Ġdw": 8134,
      "ä½¿": 8135,
      "orig": 8136,
      "Ġsomething": 8137,
      "qp": 8138,
      "äºĨ": 8139,
      "xxx": 8140,
      "Ġ-*-": 8141,
      "dy": 8142,
      "complex": 8143,
      "Angle": 8144,
      "TON": 8145,
      "Ġfinally": 8146,
      "ASK": 8147,
      "anks": 8148,
      "Wr": 8149,
      "Ġexpr": 8150,
      "priority": 8151,
      "FACE": 8152,
      "rintf": 8153,
      "Setup": 8154,
      ">()": 8155,
      "çī": 8156,
      "Emit": 8157,
      "brid": 8158,
      "dentry": 8159,
      "Ġmiddle": 8160,
      "Master": 8161,
      "Persist": 8162,
      "ij": 8163,
      "currency": 8164,
      "čĊĉĉĉĉĉĉĉ": 8165,
      "parts": 8166,
      "Ġmodules": 8167,
      "//----------------------------------------------------------------": 8168,
      "Identity": 8169,
      ">(<": 8170,
      "priate": 8171,
      "codes": 8172,
      "fav": 8173,
      "router": 8174,
      "Ãº": 8175,
      "/%": 8176,
      "250": 8177,
      "DESC": 8178,
      "ism": 8179,
      "Person": 8180,
      "middle": 8181,
      "¦Ĥ": 8182,
      "TRA": 8183,
      "Mgr": 8184,
      "Ġrest": 8185,
      "COMMAND": 8186,
      "memset": 8187,
      "lode": 8188,
      "endpoint": 8189,
      "/)": 8190,
      "rypto": 8191,
      "ĠPROVIDED": 8192,
      "ek": 8193,
      "ilar": 8194,
      "::$": 8195,
      "ENABLED": 8196,
      "Ġ2010": 8197,
      "getClass": 8198,
      "Factor": 8199,
      "suspend": 8200,
      "Ġendl": 8201,
      "Ġdom": 8202,
      "TIMEOUT": 8203,
      "serif": 8204,
      "Ġargv": 8205,
      "EXP": 8206,
      "goog": 8207,
      "ĠCore": 8208,
      "company": 8209,
      "Theme": 8210,
      "ONLY": 8211,
      "Dom": 8212,
      "ioc": 8213,
      "ãĥ³": 8214,
      "Zero": 8215,
      "()\">": 8216,
      "!(": 8217,
      "allowed": 8218,
      "Ġdisp": 8219,
      "rp": 8220,
      "icator": 8221,
      "dynamic": 8222,
      "ĠConvert": 8223,
      "ĠBORDER": 8224,
      "ĠSHALL": 8225,
      "periment": 8226,
      "Ġcause": 8227,
      "backend": 8228,
      "zoom": 8229,
      "Â¶": 8230,
      "Ġmean": 8231,
      "rtc": 8232,
      "GUI": 8233,
      "most": 8234,
      "asing": 8235,
      "Ġkw": 8236,
      "definition": 8237,
      "fficient": 8238,
      "sBy": 8239,
      "RENT": 8240,
      "SESSION": 8241,
      "Ġprocessing": 8242,
      "Switch": 8243,
      "MOVE": 8244,
      "INGS": 8245,
      "wq": 8246,
      "ĠPAGE": 8247,
      "NEW": 8248,
      "Ġpriority": 8249,
      "Expected": 8250,
      "Should": 8251,
      "Ãª": 8252,
      "Inner": 8253,
      "clip": 8254,
      "EB": 8255,
      "poll": 8256,
      "CAL": 8257,
      "concat": 8258,
      "Ġenc": 8259,
      "Ġ1024": 8260,
      "cursive": 8261,
      "cipient": 8262,
      "Ġgre": 8263,
      "Att": 8264,
      "ENV": 8265,
      "Ġbold": 8266,
      "Dependency": 8267,
      "Ġloading": 8268,
      "Ã£o": 8269,
      "ORMAL": 8270,
      "ĠGFP": 8271,
      "Cannot": 8272,
      "AUTO": 8273,
      "33333333": 8274,
      "fluid": 8275,
      "Missing": 8276,
      "//#": 8277,
      "tables": 8278,
      "locked": 8279,
      "FROM": 8280,
      "JECT": 8281,
      "ĠDEF": 8282,
      "ä¾": 8283,
      "cleanup": 8284,
      "Ġactiv": 8285,
      "ĠFix": 8286,
      "ADC": 8287,
      "substr": 8288,
      "Ġisn": 8289,
      "SPACING": 8290,
      "iling": 8291,
      "%\">": 8292,
      "members": 8293,
      "ĠHow": 8294,
      "Priority": 8295,
      "losure": 8296,
      "andidate": 8297,
      "ĠClasses": 8298,
      "ç±»": 8299,
      "ĠTag": 8300,
      "emu": 8301,
      "Capture": 8302,
      "ĊĉĉĉĠĠĠĠĠĠ": 8303,
      "ADDRESS": 8304,
      "ĠDateTime": 8305,
      "substring": 8306,
      "ãģĻ": 8307,
      "Ġconstruct": 8308,
      "Ġdeleted": 8309,
      "FX": 8310,
      "Actions": 8311,
      "binary": 8312,
      "'><": 8313,
      "Execute": 8314,
      "usic": 8315,
      "Ġ_(\"": 8316,
      "180": 8317,
      "tor": 8318,
      "Ġarch": 8319,
      "Tools": 8320,
      "Anim": 8321,
      "Ġregard": 8322,
      "lint": 8323,
      "dhd": 8324,
      "ena": 8325,
      "carousel": 8326,
      "Canvas": 8327,
      "ĠRuntime": 8328,
      "OTTOM": 8329,
      "operation": 8330,
      "Ġonclick": 8331,
      "Ġattach": 8332,
      "Period": 8333,
      "Ġboot": 8334,
      "ĠCONTRACT": 8335,
      "=\"#\">": 8336,
      "ĠSupport": 8337,
      "Created": 8338,
      "Ġcalcul": 8339,
      "Promise": 8340,
      "Ġgroups": 8341,
      "ĠVM": 8342,
      "imize": 8343,
      "ARB": 8344,
      "Standard": 8345,
      "Ãİ": 8346,
      "Dep": 8347,
      "ctrine": 8348,
      "Ġuri": 8349,
      "Ġdependencies": 8350,
      "factor": 8351,
      "FLOAT": 8352,
      "unlikely": 8353,
      "ĊĠĠĠĠĠĠĠĠĠĠĠĠĠĠĠĠĠĠĠĠĠĠĠĠĠĠĠĠĠĠĠĠĠĠĠĠĠĠ": 8354,
      "Checked": 8355,
      "poly": 8356,
      "Ġparts": 8357,
      "Ġbig": 8358,
      "ĠFIX": 8359,
      "Ġitself": 8360,
      "ko": 8361,
      "alytics": 8362,
      "ĠLIABLE": 8363,
      "ierarchy": 8364,
      "ante": 8365,
      "gregate": 8366,
      "anization": 8367,
      "ernet": 8368,
      "Ġgoogle": 8369,
      "Dynamic": 8370,
      "dummy": 8371,
      "fit": 8372,
      "Ã½": 8373,
      "Ġcompiler": 8374,
      "ĠĊĠĠĠĠĠ": 8375,
      "saved": 8376,
      "buttons": 8377,
      "Optional": 8378,
      "WISE": 8379,
      "CN": 8380,
      "Ġrepresentation": 8381,
      "Ġtransfer": 8382,
      "Guid": 8383,
      "Ġsender": 8384,
      "Ġisinstance": 8385,
      "æ³ķ": 8386,
      "alent": 8387,
      "Ġexecution": 8388,
      "Ġcs": 8389,
      "Â±": 8390,
      "\">'": 8391,
      "Aura": 8392,
      "Uint": 8393,
      "Ġactually": 8394,
      "Ġmulti": 8395,
      "åī": 8396,
      "ĠSUB": 8397,
      "absolute": 8398,
      "Ġflow": 8399,
      "Ġdue": 8400,
      "åĪ°": 8401,
      "Proc": 8402,
      "ializable": 8403,
      "defaults": 8404,
      "smart": 8405,
      "INCLUDING": 8406,
      "PASS": 8407,
      "ĊĠĠĠĠĠĠĊĠĠĠĠĠ": 8408,
      "ication": 8409,
      "ised": 8410,
      "ĠGenerated": 8411,
      "TableRowColor": 8412,
      "Bin": 8413,
      "ĊĉĠĠĠĠĠĠ": 8414,
      "Ġrs": 8415,
      "Supported": 8416,
      "ention": 8417,
      "DELETE": 8418,
      "DataType": 8419,
      "Ġpack": 8420,
      "ĠARISING": 8421,
      "DRV": 8422,
      "running": 8423,
      "Ġstarting": 8424,
      "acl": 8425,
      "ĠClear": 8426,
      "Ġgp": 8427,
      "cached": 8428,
      "Ġdisclaimer": 8429,
      "-------": 8430,
      "HETHER": 8431,
      "RATE": 8432,
      "atter": 8433,
      "Fact": 8434,
      "attle": 8435,
      "Ca": 8436,
      "hu": 8437,
      "notification": 8438,
      "ĠAny": 8439,
      "Push": 8440,
      "ä¸Ģä¸ª": 8441,
      "ĠUs": 8442,
      "inu": 8443,
      "phrase": 8444,
      "Win": 8445,
      "ERRUP": 8446,
      "calc": 8447,
      "initialize": 8448,
      "netdev": 8449,
      "*>(": 8450,
      "Convert": 8451,
      "Ġbug": 8452,
      "æĸ¹": 8453,
      "Mut": 8454,
      "=\"..": 8455,
      "sWith": 8456,
      "lour": 8457,
      "ĠSW": 8458,
      "Ġpartial": 8459,
      "Blog": 8460,
      "antity": 8461,
      "kg": 8462,
      "men": 8463,
      "resume": 8464,
      "ĠCR": 8465,
      "Ġ\"\")": 8466,
      "ĠTool": 8467,
      "Ġindent": 8468,
      "related": 8469,
      "Ġtp": 8470,
      "Ġmembers": 8471,
      "CONST": 8472,
      "ĠassertTrue": 8473,
      "ĠValid": 8474,
      "Ġglyph": 8475,
      "sktop": 8476,
      "Done": 8477,
      "aN": 8478,
      "Ġcurr": 8479,
      "è½": 8480,
      "TREE": 8481,
      "termine": 8482,
      "fake": 8483,
      "@@": 8484,
      "Ġwrap": 8485,
      "]));": 8486,
      "which": 8487,
      "FEATURE": 8488,
      "secondary": 8489,
      "panded": 8490,
      "constraint": 8491,
      "ĠPost": 8492,
      "toctree": 8493,
      "Ter": 8494,
      "idle": 8495,
      "ny": 8496,
      "tensor": 8497,
      "ĠWHETHER": 8498,
      "Ġhelper": 8499,
      "ĠEXPRESS": 8500,
      "literal": 8501,
      "preview": 8502,
      "Ġconsider": 8503,
      "700": 8504,
      "Consumer": 8505,
      "percent": 8506,
      "...)": 8507,
      "\"+": 8508,
      "Ġnr": 8509,
      "Ġ256": 8510,
      "Ġht": 8511,
      "Ġnumbers": 8512,
      "Ġ*(": 8513,
      "ĠPORT": 8514,
      "Signature": 8515,
      "Ġworks": 8516,
      "incip": 8517,
      "Ġtuple": 8518,
      "ople": 8519,
      "Ġ29": 8520,
      "Rules": 8521,
      "Ġround": 8522,
      "iny": 8523,
      "binding": 8524,
      "ned": 8525,
      "cassandra": 8526,
      "Ġcaller": 8527,
      "Ġdig": 8528,
      "forward": 8529,
      "Ġcached": 8530,
      "recv": 8531,
      "ä¸Ĭ": 8532,
      "=&": 8533,
      "Ġmmc": 8534,
      "ĠAss": 8535,
      "-------------": 8536,
      "Ġhappen": 8537,
      "-----------": 8538,
      "Ġcleanup": 8539,
      "Uses": 8540,
      "Ġtesting": 8541,
      "relation": 8542,
      "dividual": 8543,
      "etc": 8544,
      "override": 8545,
      "GC": 8546,
      "Combo": 8547,
      "Declaration": 8548,
      "Modifier": 8549,
      "âĸ": 8550,
      "updated": 8551,
      "FW": 8552,
      "ĠMark": 8553,
      "âĢĻ": 8554,
      "den": 8555,
      "Ġqual": 8556,
      "uv": 8557,
      "ĊĉĉĠĠĠĠĠ": 8558,
      "VIEW": 8559,
      "aps": 8560,
      "leaf": 8561,
      "ĠERROR": 8562,
      "ILL": 8563,
      "ership": 8564,
      "éĿ": 8565,
      "Ġinstances": 8566,
      "HashMap": 8567,
      "Alpha": 8568,
      "Ġdr": 8569,
      "Ġ\"</": 8570,
      "ĠDim": 8571,
      "à¤¾": 8572,
      "ç§": 8573,
      "Ġsafe": 8574,
      "Ġcompar": 8575,
      "Ġissue": 8576,
      "ograph": 8577,
      "When": 8578,
      "CHED": 8579,
      "Download": 8580,
      "lems": 8581,
      "BITS": 8582,
      "ĠNV": 8583,
      "ĊĉĉĉĠĠĠĠĠ": 8584,
      "Exit": 8585,
      "ably": 8586,
      "tb": 8587,
      "USH": 8588,
      "Mail": 8589,
      "è¾": 8590,
      "haser": 8591,
      "Snapshot": 8592,
      "scr": 8593,
      "è¿Ļ": 8594,
      "ĠÐ´": 8595,
      "tre": 8596,
      "ifo": 8597,
      "Modified": 8598,
      "irror": 8599,
      "fieldset": 8600,
      "para": 8601,
      "ĠReset": 8602,
      ")},": 8603,
      "ĠSPI": 8604,
      "Ġrepository": 8605,
      "PRI": 8606,
      "Ġretval": 8607,
      "ĠColumn": 8608,
      "ĠJS": 8609,
      "Ġprovides": 8610,
      "fm": 8611,
      "åİ": 8612,
      "EEE": 8613,
      "ALIGN": 8614,
      "VOL": 8615,
      "ĠPackage": 8616,
      "SING": 8617,
      "Ġlarge": 8618,
      "specific": 8619,
      "Ø³": 8620,
      "texture": 8621,
      "×ķ×": 8622,
      "Dict": 8623,
      "virt": 8624,
      "Rec": 8625,
      "ĠUART": 8626,
      "Ġpull": 8627,
      "vg": 8628,
      "HI": 8629,
      "Observer": 8630,
      "mn": 8631,
      "ĠCELLSPACING": 8632,
      "ĠRedistributions": 8633,
      "upal": 8634,
      "UV": 8635,
      "ĠCS": 8636,
      "ĠCELLPADDING": 8637,
      "ENU": 8638,
      "INSTANCE": 8639,
      "medium": 8640,
      "Ġimages": 8641,
      "monitor": 8642,
      "Ġps": 8643,
      "marker": 8644,
      "setAttribute": 8645,
      "Ġfuture": 8646,
      "Bottom": 8647,
      "=====": 8648,
      "fprintf": 8649,
      "Ġpc": 8650,
      "ĠPAR": 8651,
      "WAIT": 8652,
      "+'": 8653,
      "ĠAndroid": 8654,
      "Compiler": 8655,
      "endl": 8656,
      "bx": 8657,
      "Ġdevices": 8658,
      "ÏĦ": 8659,
      "Ġ35": 8660,
      "<>();": 8661,
      "une": 8662,
      "noframe": 8663,
      "docker": 8664,
      "configure": 8665,
      "aret": 8666,
      "ĠGu": 8667,
      "mazon": 8668,
      "Ġminimum": 8669,
      "Â³": 8670,
      "uel": 8671,
      "Ãĸ": 8672,
      "nel": 8673,
      "ĠHashMap": 8674,
      ":-": 8675,
      "Press": 8676,
      "Ġcast": 8677,
      "Ġyield": 8678,
      "ĉĉĉĉĉĉ": 8679,
      "Ġtcp": 8680,
      "ĠIL": 8681,
      "Ġsy": 8682,
      "LEMENT": 8683,
      "à¥į": 8684,
      "Dispatch": 8685,
      "ĠÐº": 8686,
      "wbr": 8687,
      "Ġutf": 8688,
      "ĠBSD": 8689,
      "âĶĢâĶĢ": 8690,
      "ĠBIT": 8691,
      "bas": 8692,
      "++]": 8693,
      "BOX": 8694,
      "elif": 8695,
      "=\"..&#": 8696,
      "FILL": 8697,
      "syn": 8698,
      "Ġxmlns": 8699,
      "inet": 8700,
      "Ġregistered": 8701,
      "Ġenumer": 8702,
      "ipv": 8703,
      "mdp": 8704,
      "MIT": 8705,
      "Speed": 8706,
      "Activ": 8707,
      "atibility": 8708,
      "Ġinset": 8709,
      "Ġalert": 8710,
      "iframe": 8711,
      "Other": 8712,
      "Ġsupports": 8713,
      "ĠSec": 8714,
      "scene": 8715,
      "Ġversions": 8716,
      "ĠSPECI": 8717,
      "lij": 8718,
      "Future": 8719,
      "à¯": 8720,
      "Ġden": 8721,
      "viders": 8722,
      "AMETER": 8723,
      "picture": 8724,
      "ĠOTHERWISE": 8725,
      "anim": 8726,
      "bre": 8727,
      "ĠDebug": 8728,
      "ĠPlayer": 8729,
      "apps": 8730,
      "Series": 8731,
      "å¦Ĥ": 8732,
      "Ġseg": 8733,
      "Ġdatetime": 8734,
      "Ġwaves": 8735,
      "ology": 8736,
      "ancell": 8737,
      "brand": 8738,
      "ĠGame": 8739,
      "ĊĉĉĉĉĉĉĉĊĉĉĉĉĉĉ": 8740,
      "Bitmap": 8741,
      "Ġdot": 8742,
      "Tasks": 8743,
      "Ġbranch": 8744,
      "Sim": 8745,
      "\"])": 8746,
      "have": 8747,
      "Dr": 8748,
      "$/": 8749,
      "categories": 8750,
      "poi": 8751,
      "Ġwp": 8752,
      "=\"#\"": 8753,
      "CSS": 8754,
      "00000001": 8755,
      "dtd": 8756,
      "Ġ90": 8757,
      "Ġ300": 8758,
      "Ġpaths": 8759,
      ",.": 8760,
      "ĠĠĠĠĠĠĠĠĠĠĠĠĠĠĠĠĠĠĠĠĠĠĠĠĠĠĠĠĠ": 8761,
      "Ġll": 8762,
      "()[": 8763,
      "chrome": 8764,
      "Ġwin": 8765,
      "WITH": 8766,
      "ĠAccess": 8767,
      "Ġdestroy": 8768,
      "SF": 8769,
      "ounce": 8770,
      "Ġpub": 8771,
      "AAAA": 8772,
      "Ġpeer": 8773,
      "ROP": 8774,
      "LowerCase": 8775,
      "PROPER": 8776,
      "Camera": 8777,
      "---------": 8778,
      "land": 8779,
      "Ġagainst": 8780,
      "ĠTORT": 8781,
      "Relation": 8782,
      "Ġrelation": 8783,
      "Ġenough": 8784,
      "guid": 8785,
      "sprintf": 8786,
      "Ġep": 8787,
      "Ġpid": 8788,
      "Ġvery": 8789,
      "ĠVis": 8790,
      "ĠAuto": 8791,
      "CLO": 8792,
      "tage": 8793,
      "Available": 8794,
      "='#": 8795,
      "Could": 8796,
      "fonts": 8797,
      "TOOL": 8798,
      "Ġredirect": 8799,
      "Tensor": 8800,
      "INTR": 8801,
      "iagnostic": 8802,
      "Ġprior": 8803,
      "Ġcancel": 8804,
      "Extensions": 8805,
      "Ġallocate": 8806,
      "234": 8807,
      "placeholder": 8808,
      "Ġ*=": 8809,
      ")){": 8810,
      "Ġtw": 8811,
      "Ġadapter": 8812,
      "train": 8813,
      "HANDLE": 8814,
      "tg": 8815,
      "Dat": 8816,
      "å±": 8817,
      "ements": 8818,
      "Ġpol": 8819,
      "1024": 8820,
      "threshold": 8821,
      "numeric": 8822,
      "/{": 8823,
      "listener": 8824,
      "Â°": 8825,
      "Watch": 8826,
      "orth": 8827,
      "Ġsa": 8828,
      "charset": 8829,
      "ãģĹ": 8830,
      "apon": 8831,
      "Ġam": 8832,
      "gov": 8833,
      "Ġtre": 8834,
      "extensions": 8835,
      "Delta": 8836,
      "Ġwrong": 8837,
      "Ġsz": 8838,
      "Im": 8839,
      "MUL": 8840,
      "IconSuccess": 8841,
      "Ġrhs": 8842,
      "ç¨": 8843,
      "HIGH": 8844,
      "Head": 8845,
      "appendChild": 8846,
      "stride": 8847,
      "ĊĠĠĠĠĠĠĠĠĠĠĠĠĠĠĠĠĠĠĠĠĠĠĠĠĠĠĠĠĠĠĠĠĠĠĠĠĠĠĠĠĠĠĠĠĠĠĠĠĠĠĠĠĠĠĠ": 8848,
      "ores": 8849,
      "ÙĬ": 8850,
      "ĠRef": 8851,
      "Calendar": 8852,
      "Ġnamed": 8853,
      "ĠAP": 8854,
      "za": 8855,
      "PEG": 8856,
      "Ġfrag": 8857,
      "WEB": 8858,
      "Machine": 8859,
      "Ġax": 8860,
      "vertex": 8861,
      "264": 8862,
      "ĠRTC": 8863,
      "Â£": 8864,
      "two": 8865,
      "losing": 8866,
      "zen": 8867,
      "SUPP": 8868,
      "Ġignored": 8869,
      "Functions": 8870,
      "ĠZend": 8871,
      "Ġdownload": 8872,
      "ĠBack": 8873,
      "valueOf": 8874,
      "Metrics": 8875,
      "SED": 8876,
      "standard": 8877,
      "coord": 8878,
      "ĊĊĊĠĠĠĠĠĠĠ": 8879,
      "Ġalias": 8880,
      "fragment": 8881,
      "Operand": 8882,
      "scala": 8883,
      "Ġ\"(": 8884,
      "ki": 8885,
      "Ġdefaults": 8886,
      "Schedule": 8887,
      "Dictionary": 8888,
      "ĠPyObject": 8889,
      "TIMER": 8890,
      "activate": 8891,
      "Const": 8892,
      "104": 8893,
      "\"><?": 8894,
      "parentNode": 8895,
      "Ġimmediate": 8896,
      "ilevel": 8897,
      "IconSuccessEncoded": 8898,
      "ERNAL": 8899,
      "ĠGraph": 8900,
      "Destroy": 8901,
      "(\"<": 8902,
      "TCP": 8903,
      "Alias": 8904,
      "series": 8905,
      "]).": 8906,
      "bitmap": 8907,
      "AIN": 8908,
      "Ġlocale": 8909,
      "irc": 8910,
      "Touch": 8911,
      "Ġcourse": 8912,
      "UART": 8913,
      "Ġ\":": 8914,
      "\\.": 8915,
      "ĠARRAY": 8916,
      "Tip": 8917,
      "illis": 8918,
      "ĠChannel": 8919,
      "ĠTX": 8920,
      "atype": 8921,
      "ĠBASE": 8922,
      "Ġpci": 8923,
      "WL": 8924,
      "thr": 8925,
      "Weight": 8926,
      "ĠĠĠĠĠĠĠĠĠĠĠĠĠĠĠĠĠĠĠĠĠĠĠĠĠĠĠĠ": 8927,
      "Ð¾ÑĢ": 8928,
      "orient": 8929,
      "transfer": 8930,
      "crumb": 8931,
      "PRIV": 8932,
      "ducer": 8933,
      "layers": 8934,
      "èĩ": 8935,
      "Ġ========": 8936,
      "abbr": 8937,
      "Ġactions": 8938,
      "ye": 8939,
      "extract": 8940,
      "Seq": 8941,
      "Ġhistory": 8942,
      "GT": 8943,
      "adoc": 8944,
      "ĠTOP": 8945,
      "Loading": 8946,
      "SUPPORT": 8947,
      "amel": 8948,
      "atis": 8949,
      "Ġalgorithm": 8950,
      ";\\": 8951,
      "ĠHOLDER": 8952,
      "Ġpod": 8953,
      "Ġadjust": 8954,
      "crease": 8955,
      "paper": 8956,
      "(()": 8957,
      "Extra": 8958,
      "Hz": 8959,
      "STOP": 8960,
      "Ġready": 8961,
      "onical": 8962,
      "Ġquot": 8963,
      "2012": 8964,
      "LONG": 8965,
      "scape": 8966,
      "ĠDevice": 8967,
      "Ġattrs": 8968,
      "Ġhide": 8969,
      "VIS": 8970,
      "alan": 8971,
      "Scalar": 8972,
      "shell": 8973,
      "ĠCreated": 8974,
      "BOOL": 8975,
      "Transition": 8976,
      "Ġtasks": 8977,
      "IMAGE": 8978,
      "pur": 8979,
      "stub": 8980,
      "ÑĪ": 8981,
      "Ġreject": 8982,
      "olate": 8983,
      "deb": 8984,
      "vma": 8985,
      "heap": 8986,
      "Ġmail": 8987,
      "ysical": 8988,
      "ĠSign": 8989,
      "ENDOR": 8990,
      "iom": 8991,
      "LANG": 8992,
      "NUMBER": 8993,
      "Ġdetail": 8994,
      "ĠÐ¸": 8995,
      "irmware": 8996,
      "diction": 8997,
      "Ġpara": 8998,
      "Ġwrapper": 8999,
      "Visitor": 9000,
      "Ġdeal": 9001,
      "Origin": 9002,
      "ality": 9003,
      "Filename": 9004,
      "tvb": 9005,
      "Commit": 9006,
      "Ãĥ": 9007,
      "Ġchecks": 9008,
      "mul": 9009,
      "general": 9010,
      "Ġreading": 9011,
      "Bad": 9012,
      "Org": 9013,
      "oring": 9014,
      "ORE": 9015,
      "Ġaff": 9016,
      "LER": 9017,
      "badge": 9018,
      "Tw": 9019,
      "oton": 9020,
      "connected": 9021,
      "Ġvolatile": 9022,
      "Include": 9023,
      "Break": 9024,
      "Codec": 9025,
      "ensitive": 9026,
      "Ġ55": 9027,
      "Fetch": 9028,
      "Ġins": 9029,
      "åĪĨ": 9030,
      "Ġil": 9031,
      "ini": 9032,
      "stage": 9033,
      "sdk": 9034,
      "Ġlp": 9035,
      "Ġimplemented": 9036,
      "rier": 9037,
      "ç½®": 9038,
      "reverse": 9039,
      "Ċĉĉĉĉĉĉĉĉĉĉĉĉ": 9040,
      "0002": 9041,
      "Ġclosed": 9042,
      "Ġdump": 9043,
      "Ġdetermine": 9044,
      "Ġbucket": 9045,
      "NORMAL": 9046,
      "Ġtables": 9047,
      "ĠWith": 9048,
      "ĠCAN": 9049,
      "Ġ**/": 9050,
      "qq": 9051,
      "edu": 9052,
      "Writ": 9053,
      "Ġbehavior": 9054,
      "Ġappropriate": 9055,
      "æĪĲ": 9056,
      "gmail": 9057,
      "tpl": 9058,
      "ulp": 9059,
      "secret": 9060,
      "inverse": 9061,
      "åĴ": 9062,
      "chno": 9063,
      "CLIENT": 9064,
      "186": 9065,
      "GroupName": 9066,
      "MON": 9067,
      "Ð¾Ð»": 9068,
      "aven": 9069,
      "Ġforward": 9070,
      "tuple": 9071,
      "Ġtouch": 9072,
      "Ġseries": 9073,
      "xffffff": 9074,
      "avatar": 9075,
      "Ġgit": 9076,
      "2018": 9077,
      "Ġ\"-//": 9078,
      "ä½¿çĶ¨": 9079,
      "199": 9080,
      "Features": 9081,
      "lision": 9082,
      "čĊĠĠĠĠĠĠĠĠĠĠĠĠĠ": 9083,
      "VIDEO": 9084,
      "Anchor": 9085,
      "Î¹": 9086,
      "ĠCurrent": 9087,
      "TITLE": 9088,
      "ongo": 9089,
      "cid": 9090,
      "ATT": 9091,
      "Ġgeneric": 9092,
      "ĠPri": 9093,
      "æį®": 9094,
      "Score": 9095,
      "Ġpt": 9096,
      "Ġ48": 9097,
      "Ġ../": 9098,
      "Ġinvok": 9099,
      "Accessor": 9100,
      "ÑĨ": 9101,
      "paths": 9102,
      "************************": 9103,
      "'ll": 9104,
      "Ġhw": 9105,
      "Gtk": 9106,
      "'''": 9107,
      "ICT": 9108,
      "Ð¹": 9109,
      "Elem": 9110,
      "]{": 9111,
      "mot": 9112,
      "1111": 9113,
      "ĠOb": 9114,
      "Ġforms": 9115,
      "worker": 9116,
      "rgb": 9117,
      "Zoom": 9118,
      "hib": 9119,
      "ĊĊĉĉĉĉĉ": 9120,
      "Ready": 9121,
      "Ġapilevel": 9122,
      ")=": 9123,
      "è¡¨": 9124,
      "à¦¾": 9125,
      "vet": 9126,
      "geo": 9127,
      "ĠRender": 9128,
      "Ġhandling": 9129,
      "MACH": 9130,
      "sizing": 9131,
      "SHA": 9132,
      "ĠToken": 9133,
      "Ġreply": 9134,
      "renderer": 9135,
      "rial": 9136,
      "mnt": 9137,
      "Â´": 9138,
      "NI": 9139,
      "aux": 9140,
      "ACCESS": 9141,
      "ISTER": 9142,
      "ĠRights": 9143,
      "mine": 9144,
      "Ġsi": 9145,
      "except": 9146,
      "REFER": 9147,
      "+-": 9148,
      "Ġboard": 9149,
      "Surface": 9150,
      "Ġchart": 9151,
      "celer": 9152,
      "EQUAL": 9153,
      "Matcher": 9154,
      "ports": 9155,
      "Ġpm": 9156,
      "social": 9157,
      "styles": 9158,
      "ĠEntity": 9159,
      "cols": 9160,
      "dirname": 9161,
      "googleapis": 9162,
      "Ġsuccessfully": 9163,
      "ĠĠĠĠĠĠĠĠĠĠĠĠĠĠĠĠĠĠĠĠĠĠĠĠĠĠĠĠĠĠĠ": 9164,
      "demo": 9165,
      "inject": 9166,
      "tasks": 9167,
      "Tex": 9168,
      "intr": 9169,
      "GP": 9170,
      "ulture": 9171,
      "NameLink": 9172,
      "apple": 9173,
      "ĊĠĠĠĠĠĠĠĠĠĠĠĠĠĠĠĠĠĠĠĠĠĠĠĠĠĠĠĠĠĠĠĠĠĠĠĠĠĠĠĠĠ": 9174,
      "ĠFR": 9175,
      "BUT": 9176,
      "THREAD": 9177,
      "Ġstarted": 9178,
      "ĠFLA": 9179,
      "BS": 9180,
      "><?": 9181,
      "çĲ": 9182,
      "ancellation": 9183,
      "ĠDon": 9184,
      "ĠExp": 9185,
      "=\"./": 9186,
      "Ġlicenses": 9187,
      "èĥ½": 9188,
      "devices": 9189,
      "ĠSymbol": 9190,
      "Lines": 9191,
      "graphics": 9192,
      "toLowerCase": 9193,
      "chars": 9194,
      "ĠTemp": 9195,
      "Reason": 9196,
      "csv": 9197,
      "Ġcanvas": 9198,
      "Lin": 9199,
      "Ġnegative": 9200,
      "distance": 9201,
      "iece": 9202,
      "ĠInternal": 9203,
      "neg": 9204,
      "pay": 9205,
      "Ġcy": 9206,
      "Ġ__(": 9207,
      "hot": 9208,
      "news": 9209,
      "Ġpromise": 9210,
      "La": 9211,
      "Mix": 9212,
      "tty": 9213,
      "dirty": 9214,
      "SEQU": 9215,
      "IES": 9216,
      "CNT": 9217,
      "rss": 9218,
      "Exist": 9219,
      "fh": 9220,
      ">)</": 9221,
      "jet": 9222,
      "Worker": 9223,
      "Ġallocated": 9224,
      "Ent": 9225,
      "Ġol": 9226,
      "Ġcreating": 9227,
      "emo": 9228,
      "intellij": 9229,
      ">',": 9230,
      "versions": 9231,
      "Ġmodification": 9232,
      "Microsoft": 9233,
      "EV": 9234,
      "Ġflush": 9235,
      "tex": 9236,
      "Ġnotify": 9237,
      "STEM": 9238,
      ")?": 9239,
      "Feed": 9240,
      "ICES": 9241,
      "Compare": 9242,
      "Ġtermin": 9243,
      "Ġschedule": 9244,
      "Ġmixed": 9245,
      "formance": 9246,
      "ç®": 9247,
      "VENDOR": 9248,
      "indices": 9249,
      "Nd": 9250,
      "RANGE": 9251,
      "metric": 9252,
      "Received": 9253,
      "seek": 9254,
      "ĠIllegalArgumentException": 9255,
      "Â½": 9256,
      "iface": 9257,
      "ĠÎ": 9258,
      "cart": 9259,
      "FIFO": 9260,
      "Ġfactor": 9261,
      "Ġexact": 9262,
      "Contract": 9263,
      "Runner": 9264,
      "Ġast": 9265,
      "plug": 9266,
      "áº": 9267,
      "forge": 9268,
      "pn": 9269,
      "Ġtf": 9270,
      "jack": 9271,
      "hub": 9272,
      "ĠBuilder": 9273,
      "Authentication": 9274,
      "UNKNOWN": 9275,
      "Ġsuccessful": 9276,
      "confirm": 9277,
      "Ġ'{": 9278,
      "555": 9279,
      "IBUTORS": 9280,
      "jd": 9281,
      "PIX": 9282,
      "ajor": 9283,
      "ĠParameters": 9284,
      "Ġbook": 9285,
      "ClassName": 9286,
      "evt": 9287,
      "ÐµÑĤ": 9288,
      "Ġangle": 9289,
      "Leg": 9290,
      "named": 9291,
      "åĴĮ": 9292,
      "WINDO": 9293,
      "shop": 9294,
      "geometry": 9295,
      "bench": 9296,
      "clusive": 9297,
      "LT": 9298,
      "Ġ//!": 9299,
      "Ġmath": 9300,
      "merce": 9301,
      "Ġtexture": 9302,
      "102": 9303,
      "SIG": 9304,
      "aken": 9305,
      "Ġrecords": 9306,
      "conv": 9307,
      "Ãı": 9308,
      "Ġpat": 9309,
      "ERRUPT": 9310,
      "Ġlonger": 9311,
      "FIN": 9312,
      "Ġelseif": 9313,
      "readcrumb": 9314,
      "frm": 9315,
      "Msk": 9316,
      "supp": 9317,
      "Ġaround": 9318,
      "ĠAD": 9319,
      "oz": 9320,
      "Ġlabels": 9321,
      "glob": 9322,
      "Ġrestore": 9323,
      "ĠNOTE": 9324,
      "ĠFirst": 9325,
      "COPY": 9326,
      "FREE": 9327,
      "repository": 9328,
      "XG": 9329,
      "ĠMSM": 9330,
      "Collect": 9331,
      "mous": 9332,
      "Ġretry": 9333,
      "unregister": 9334,
      "ERO": 9335,
      "itr": 9336,
      "NEXT": 9337,
      "arger": 9338,
      "ĠIm": 9339,
      "Ġintegr": 9340,
      "KEN": 9341,
      "UG": 9342,
      "OwnProperty": 9343,
      "cycle": 9344,
      "ĠSSL": 9345,
      "~~~~~~~~": 9346,
      "ĠLibrary": 9347,
      "ĊĊĠĠĠĠĊĊĠĠĠĠ": 9348,
      "cccc": 9349,
      "Ùĩ": 9350,
      "hint": 9351,
      "ĠTCP": 9352,
      "vn": 9353,
      "FAILURE": 9354,
      "ritical": 9355,
      "Â¹": 9356,
      "Ú©": 9357,
      "Ġwords": 9358,
      "Ġinputs": 9359,
      "Acc": 9360,
      "livery": 9361,
      "Blocks": 9362,
      "volatile": 9363,
      "Sheet": 9364,
      "Analysis": 9365,
      "ĠAUTH": 9366,
      "ceed": 9367,
      "Ġhome": 9368,
      "Ip": 9369,
      "urred": 9370,
      "Ġmodal": 9371,
      ">=": 9372,
      "ãĤĭ": 9373,
      "onymous": 9374,
      "ĊĠĠĠĠĠĠĠĠĠĠĠĠĊĠĠĠĠĠĠĠĠĠĠĠĠ": 9375,
      "iso": 9376,
      "Ġjo": 9377,
      "Ġgets": 9378,
      "ĠVAR": 9379,
      "ĠAlso": 9380,
      "Ġ/><": 9381,
      "Ġ><": 9382,
      "LIT": 9383,
      "ĠonClick": 9384,
      "Ġcss": 9385,
      "ĠAuthors": 9386,
      "ĠCorp": 9387,
      "ICATION": 9388,
      "prob": 9389,
      "ĠSDL": 9390,
      "samples": 9391,
      "stit": 9392,
      "PEND": 9393,
      "å¿": 9394,
      "abstract": 9395,
      "ining": 9396,
      "NING": 9397,
      "walk": 9398,
      "hist": 9399,
      "STATIC": 9400,
      "ĊĠĠĠĠĠĠĠĠĠĠĠĠĠĠĠĠĊĠĠĠĠĠĠĠĠĠĠĠĠĠĠĠ": 9401,
      "Ġear": 9402,
      "commands": 9403,
      "2019": 9404,
      "Hint": 9405,
      "BEGIN": 9406,
      "Ġtvb": 9407,
      "Â¸": 9408,
      "Stub": 9409,
      "Ġ[(": 9410,
      "More": 9411,
      "Ġcod": 9412,
      "Ñħ": 9413,
      "threads": 9414,
      "144": 9415,
      "Ġupload": 9416,
      "mesh": 9417,
      "è¨": 9418,
      "Ġrb": 9419,
      "sch": 9420,
      "Ġ}).": 9421,
      "124": 9422,
      "ĠPromise": 9423,
      "timeline": 9424,
      "gz": 9425,
      "Ġ----------------": 9426,
      "stand": 9427,
      "ĠConstant": 9428,
      "!</": 9429,
      "lax": 9430,
      "removeClass": 9431,
      "lambda": 9432,
      "stylesheets": 9433,
      "Ġconfigured": 9434,
      "MX": 9435,
      "ĠCopy": 9436,
      "Ġmer": 9437,
      "Ġbfd": 9438,
      "Excel": 9439,
      "Entries": 9440,
      "ensity": 9441,
      "Ġ02": 9442,
      "Ġtokens": 9443,
      ".\")": 9444,
      "GTK": 9445,
      "orn": 9446,
      "solid": 9447,
      "ĠTemplate": 9448,
      "Translation": 9449,
      "perf": 9450,
      "Ġabort": 9451,
      "Car": 9452,
      "iffies": 9453,
      "ĠCONTRIBUTORS": 9454,
      "çĲĨ": 9455,
      "Ã®": 9456,
      "Formatter": 9457,
      "ĠMode": 9458,
      "Ġprec": 9459,
      "fun": 9460,
      "TEX": 9461,
      "Disk": 9462,
      "DAT": 9463,
      "éģ": 9464,
      "ĠStruct": 9465,
      "modified": 9466,
      "ming": 9467,
      "stdout": 9468,
      "ĠVirtual": 9469,
      "åŃĹ": 9470,
      "ĠUsed": 9471,
      "MEDI": 9472,
      "React": 9473,
      "White": 9474,
      "CAST": 9475,
      "[])": 9476,
      "surface": 9477,
      "OLE": 9478,
      "bold": 9479,
      "Ġmount": 9480,
      "ĠSP": 9481,
      "ĊĉĊĉ": 9482,
      "may": 9483,
      "ĠSHA": 9484,
      "[-": 9485,
      "UUID": 9486,
      "pod": 9487,
      "onom": 9488,
      "ĠAcc": 9489,
      "finish": 9490,
      "Ġweight": 9491,
      "ĠVerify": 9492,
      "Kernel": 9493,
      "Ġcome": 9494,
      "SETT": 9495,
      "grp": 9496,
      "latest": 9497,
      "deep": 9498,
      "ĠTry": 9499,
      "Ġ\"\");": 9500,
      "Ġmysql": 9501,
      "PCM": 9502,
      "ĠOtherwise": 9503,
      "verage": 9504,
      "čĊĠĠĠĠĠĠĠĠĠĠĠĠĠĠĠĠĠĠĠĠĠĠĠĠĠĠĠĠĠĠĠĠĠĠĠĠĠĠĠ": 9505,
      "ĠScript": 9506,
      "Reply": 9507,
      "Unique": 9508,
      ">.</": 9509,
      "çİ": 9510,
      "BF": 9511,
      "Ð¸ÑĤ": 9512,
      "HC": 9513,
      "ANY": 9514,
      "ple": 9515,
      "ĠERR": 9516,
      "Sound": 9517,
      "Margin": 9518,
      "anit": 9519,
      "Ġregex": 9520,
      "ĠOC": 9521,
      "hello": 9522,
      "ĊĊĊĊĊĊĊĊĊĊĊĊĊĊĊĊ": 9523,
      "portfolio": 9524,
      "Ġclip": 9525,
      "Executor": 9526,
      "pw": 9527,
      "ĠOff": 9528,
      "ĠPart": 9529,
      "sound": 9530,
      "Sys": 9531,
      "Ġlua": 9532,
      "noscript": 9533,
      "ĠĊĠĠ": 9534,
      "Ġ36": 9535,
      "Enc": 9536,
      "TEXTURE": 9537,
      "Ġinitialized": 9538,
      "Ġ#{": 9539,
      "DOMAIN": 9540,
      "ĠUS": 9541,
      "Sem": 9542,
      "live": 9543,
      "verbose": 9544,
      "OIN": 9545,
      "ĠFloat": 9546,
      "Ġregisters": 9547,
      "Dist": 9548,
      "capture": 9549,
      "modifier": 9550,
      "thumbnail": 9551,
      "Asset": 9552,
      "ste": 9553,
      "ĠDisplay": 9554,
      "oney": 9555,
      "illed": 9556,
      "Ġincludes": 9557,
      "ĠTree": 9558,
[...]
